{
  "version": "1.0",
  "truncation": null,
  "padding": null,
  "added_tokens": [
    {
      "id": 0,
      "content": "[UNK]",
      "single_word": false,
      "lstrip": false,
      "rstrip": false,
      "normalized": false,
      "special": true
    },
    {
      "id": 1,
      "content": "[PAD]",
      "single_word": false,
      "lstrip": false,
      "rstrip": false,
      "normalized": false,
      "special": true
    },
    {
      "id": 2,
      "content": "[CLS]",
      "single_word": false,
      "lstrip": false,
      "rstrip": false,
      "normalized": false,
      "special": true
    },
    {
      "id": 3,
      "content": "[SEP]",
      "single_word": false,
      "lstrip": false,
      "rstrip": false,
      "normalized": false,
      "special": true
    },
    {
      "id": 4,
      "content": "[MASK]",
      "single_word": false,
      "lstrip": false,
      "rstrip": false,
      "normalized": false,
      "special": true
    }
  ],
  "normalizer": null,
  "pre_tokenizer": null,
  "post_processor": null,
  "decoder": null,
  "model": {
    "type": "WordPiece",
    "unk_token": "[UNK]",
    "continuing_subword_prefix": "##",
    "max_input_chars_per_word": 100,
    "vocab": {
      "[UNK]": 0,
      "[PAD]": 1,
      "[CLS]": 2,
      "[SEP]": 3,
      "[MASK]": 4,
      " ": 5,
      "'": 6,
      "0": 7,
      "1": 8,
      "2": 9,
      "3": 10,
      "4": 11,
      "5": 12,
      "6": 13,
      "7": 14,
      "8": 15,
      "9": 16,
      "a": 17,
      "b": 18,
      "c": 19,
      "d": 20,
      "e": 21,
      "f": 22,
      "g": 23,
      "h": 24,
      "i": 25,
      "j": 26,
      "k": 27,
      "l": 28,
      "m": 29,
      "n": 30,
      "o": 31,
      "p": 32,
      "q": 33,
      "r": 34,
      "s": 35,
      "t": 36,
      "u": 37,
      "v": 38,
      "w": 39,
      "x": 40,
      "y": 41,
      "z": 42,
      "##8": 43,
      "##1": 44,
      "##0": 45,
      "## ": 46,
      "##2": 47,
      "##3": 48,
      "##6": 49,
      "##5": 50,
      "##i": 51,
      "##n": 52,
      "##f": 53,
      "##o": 54,
      "##d": 55,
      "##s": 56,
      "##a": 57,
      "##t": 58,
      "##e": 59,
      "##p": 60,
      "##c": 61,
      "##k": 62,
      "##r": 63,
      "##v": 64,
      "##b": 65,
      "##l": 66,
      "##4": 67,
      "##7": 68,
      "##z": 69,
      "##9": 70,
      "##m": 71,
      "##g": 72,
      "##y": 73,
      "##j": 74,
      "##u": 75,
      "##h": 76,
      "##x": 77,
      "##w": 78,
      "##q": 79,
      "##'": 80,
      "## 1": 81,
      "## 0": 82,
      "## 2": 83,
      "## s": 84,
      "##11": 85,
      "## d": 86,
      "##in": 87,
      "## b": 88,
      "## r": 89,
      "## n": 90,
      "##00": 91,
      "##er": 92,
      "##ck": 93,
      "##at": 94,
      "##10": 95,
      "## in": 96,
      "## c": 97,
      "##fo": 98,
      "##lo": 99,
      "## m": 100,
      "## 10": 101,
      "##lock": 102,
      "## block": 103,
      "## info": 104,
      "##f s": 105,
      "## l": 106,
      "##e ": 107,
      "## df s": 108,
      "## b l": 109,
      "## b lk": 110,
      "##ata": 111,
      "## 5": 112,
      "##811": 113,
      "## 3": 114,
      "## data": 115,
      "## u": 116,
      "##et": 117,
      "## 25": 118,
      "0811": 119,
      "## info df s": 120,
      "## f": 121,
      "##ed": 122,
      "## 200": 123,
      "## 10 25": 124,
      "##e s": 125,
      "## 2005": 126,
      "## t": 127,
      "## j": 128,
      "## re": 129,
      "## 11": 130,
      "##em": 131,
      "##on": 132,
      "##s ": 133,
      "## c j": 134,
      "##st": 135,
      "## 10 251": 136,
      "##ing": 137,
      "## na": 138,
      "##e sy": 139,
      "##stem": 140,
      "## nam": 141,
      "##e system": 142,
      "## name system": 143,
      "##el": 144,
      "## 4": 145,
      "## 2005 0": 146,
      "## block b lk": 147,
      "##64": 148,
      "##ad": 149,
      "##67": 150,
      "##or": 151,
      "## no": 152,
      "## 01": 153,
      "##88": 154,
      "## nod": 155,
      "##pa": 156,
      "##iv": 157,
      "## data nod": 158,
      "##12": 159,
      "##ond": 160,
      "## 500": 161,
      "## i": 162,
      "## 50010": 163,
      "## info df s data nod": 164,
      "## m 0": 165,
      "081111": 166,
      "## ra": 167,
      "##sp": 168,
      "##cket": 169,
      "##packet": 170,
      "## resp": 171,
      "## respond": 172,
      "## responder": 173,
      "##packet responder": 174,
      "## fs": 175,
      "## info df s fs": 176,
      "##ce": 177,
      "##add": 178,
      "081110": 179,
      "## o": 180,
      "##en": 181,
      "## 7": 182,
      "##ern": 183,
      "## m 0 n": 184,
      "081111 0": 185,
      "##13": 186,
      "## u 01": 187,
      "## 6": 188,
      "## ras ": 189,
      "## u 11": 190,
      "## 19": 191,
      "##44": 192,
      "## 12": 193,
      "## to": 194,
      "##kern": 195,
      "##kernel": 196,
      "##09": 197,
      "## m 1": 198,
      "## ras kernel": 199,
      "##al": 200,
      "## m 1 n": 201,
      "## c j 0": 202,
      "##24": 203,
      "##15": 204,
      "##14": 205,
      "##ating": 206,
      "## name system block": 207,
      "## info df s fs name system block": 208,
      "## 8": 209,
      "## ras kernel info": 210,
      "## info df s fs name system block name system": 211,
      "##25": 212,
      "## x": 213,
      "##65": 214,
      "##35": 215,
      "## rece": 216,
      "## receiv": 217,
      "##34": 218,
      "##iz": 219,
      "##e packet responder": 220,
      "## info df s data node packet responder": 221,
      "##ize ": 222,
      "## 2005 07": 223,
      "##30": 224,
      "##37": 225,
      "##t ": 226,
      "##6710": 227,
      "##8864": 228,
      "##67108864": 229,
      "##ize 67108864": 230,
      "## is ": 231,
      "##85": 232,
      "##ing block b lk": 233,
      "##ed to": 234,
      "##39": 235,
      "##added to": 236,
      "## is added to": 237,
      "##27": 238,
      "## 9": 239,
      "##20": 240,
      "##69": 241,
      "##87": 242,
      "##29": 243,
      "## 14": 244,
      "## g": 245,
      "##17": 246,
      "##19": 247,
      "##60": 248,
      "##ro": 249,
      "## set": 250,
      "## del": 251,
      "## delet": 252,
      "##84": 253,
      "## ma": 254,
      "##89": 255,
      "## 15": 256,
      "##ar": 257,
      "## 20": 258,
      "##80": 259,
      "## 17": 260,
      "##e data": 261,
      "## ce ": 262,
      "##iver": 263,
      "## x ce ": 264,
      "##e data x ce ": 265,
      "##e data x ce iver": 266,
      "## 2005 06": 267,
      "112": 268,
      "##il": 269,
      "## 16": 270,
      "## info df s fs name system block name system ": 271,
      "##for": 272,
      "## info df s data node data x ce iver": 273,
      "## cor": 274,
      "##ed block b lk": 275,
      "## 13": 276,
      "##pt": 277,
      "##23": 278,
      "##ali": 279,
      "## st": 280,
      "## r 3": 281,
      "##55": 282,
      "## map": 283,
      "##ur": 284,
      "## 18": 285,
      "##err": 286,
      "## for": 287,
      "## 26": 288,
      "##ion": 289,
      "## u 11 ras kernel info": 290,
      "## 00": 291,
      "##26": 292,
      "##ener": 293,
      "##16": 294,
      "##75": 295,
      "##erm": 296,
      "## stor": 297,
      "##ent": 298,
      "## 10 250": 299,
      "##e st": 300,
      "##ated": 301,
      "##33": 302,
      "## u 01 ras kernel info": 303,
      "##79": 304,
      "##rom": 305,
      "## gener": 306,
      "## term": 307,
      "## rc": 308,
      "## s rc": 309,
      "## up": 310,
      "## from": 311,
      "## 24": 312,
      "## de st": 313,
      "## info df s data node data x ce iver receiv": 314,
      "## termin": 315,
      "## info df s data node data x ce iver receiving block b lk": 316,
      "## upd": 317,
      "##ed block": 318,
      "##add stor": 319,
      "##add stored block": 320,
      "## info df s fs name system block name system add stored block": 321,
      "## block map": 322,
      "## 50010 is added to": 323,
      "## updated": 324,
      "## info df s fs name system block name system add stored block block map": 325,
      "## 50010 is added to b lk": 326,
      "## info df s fs name system block name system add stored block block map updated": 327,
      "## of s": 328,
      "## for block b lk": 329,
      "## packet responder": 330,
      "## info df s data node packet responder packet responder": 331,
      "## terminating": 332,
      "##ating cor": 333,
      "## generating cor": 334,
      "## received block b lk": 335,
      "## info df s data node packet responder received block b lk": 336,
      "##74": 337,
      "##28": 338,
      "##ub": 339,
      "## di": 340,
      "##op": 341,
      "## size 67108864": 342,
      "## 09": 343,
      "## of size 67108864": 344,
      "##70": 345,
      "## of size 67108864 from": 346,
      "081110 2": 347,
      "##ad o": 348,
      "##had o": 349,
      "##had oop": 350,
      "## a": 351,
      "## fil": 352,
      "##36": 353,
      "##18": 354,
      "##54": 355,
      "##ec": 356,
      "##vali": 357,
      "##valid": 358,
      "## invalid": 359,
      "##50": 360,
      "##59": 361,
      "##22": 362,
      "## dir": 363,
      "## file": 364,
      "## of": 365,
      "## m n": 366,
      "## s rc 10 251": 367,
      "## de st 10 251": 368,
      "## data c": 369,
      "##urr": 370,
      "##urrent": 371,
      "## data set": 372,
      "## info df s fs name system block name system add stored block block map updated 10 251": 373,
      "##e b lk": 374,
      "##t had oop": 375,
      "## m nt had oop": 376,
      "## info df s fs data set": 377,
      "## df s data c": 378,
      "## deleting block b lk": 379,
      "## file m nt had oop": 380,
      "## info df s fs data set deleting block b lk": 381,
      "## df s data current": 382,
      "## file m nt had oop df s data current": 383,
      "## info df s fs name system block name system delet": 384,
      "## is added to invalid": 385,
      "## set of": 386,
      "## info df s fs name system block name system delete b lk": 387,
      "## is added to invalid set of": 388,
      "## 23": 389,
      "## sub": 390,
      "## file m nt had oop df s data current sub": 391,
      "## file m nt had oop df s data current sub dir": 392,
      "## 28": 393,
      "## 27": 394,
      "## of size 67108864 from 10 251": 395,
      "## 30": 396,
      "##38": 397,
      "## 2005 11": 398,
      "##ex": 399,
      "## 19 info df s fs data set deleting block b lk": 400,
      "##66": 401,
      "##94": 402,
      "##04": 403,
      "##ic": 404,
      "##as": 405,
      "## int": 406,
      "## p": 407,
      "## 04": 408,
      "## is added to invalid set of 10 251": 409,
      "##77": 410,
      "##32": 411,
      "##68": 412,
      "## w": 413,
      "## 03": 414,
      "113": 415,
      "## 29": 416,
      "## r 6": 417,
      "##t ex": 418,
      "##99": 419,
      "##erv": 420,
      "## 0 x": 421,
      "##nd": 422,
      "##error": 423,
      "##cept": 424,
      "##ception": 425,
      "## 21": 426,
      "##57": 427,
      "##90": 428,
      "## 22": 429,
      "##t exception": 430,
      "##erru": 431,
      "## interru": 432,
      "##it": 433,
      "##62": 434,
      "## 34": 435,
      "## interrupt": 436,
      "111": 437,
      "##ect": 438,
      "081109": 439,
      "## 07": 440,
      "## generating core ": 441,
      "## 000": 442,
      "## 02": 443,
      "##atal": 444,
      "## fatal": 445,
      "##40": 446,
      "## 2005 12": 447,
      "##emp": 448,
      "## generating core": 449,
      "## u 11 2005 07": 450,
      "## u 01 2005 07": 451,
      "## 35": 452,
      "## 08": 453,
      "##63": 454,
      "081110 10": 455,
      "## 2005 08": 456,
      "##ser": 457,
      "## j 18": 458,
      "## i j 18": 459,
      "## c j 16": 460,
      "## 32": 461,
      "##ch": 462,
      "##gn": 463,
      "## 39": 464,
      "##58": 465,
      "##ask": 466,
      "##49": 467,
      "## 2005 06 14": 468,
      "## error": 469,
      "## task": 470,
      "## 31": 471,
      "## 05": 472,
      "## 06": 473,
      "##par": 474,
      "## 0 ": 475,
      "## 33": 476,
      "##oo": 477,
      "##78": 478,
      "##52": 479,
      "##loc": 480,
      "## de": 481,
      "## 67": 482,
      "##locat": 483,
      "## 111": 484,
      "## to 10 251": 485,
      "##an": 486,
      "##56": 487,
      "##53": 488,
      "## 42": 489,
      "## iar": 490,
      "## temp": 491,
      "##97": 492,
      "## c j 12": 493,
      "## ras kernel fatal": 494,
      "##83": 495,
      "## dear": 496,
      "##82": 497,
      "##t ra": 498,
      "##86": 499,
      "##er ": 500,
      "##s 0": 501,
      "## 50": 502,
      "##ss": 503,
      "##men": 504,
      "##align": 505,
      "##alignmen": 506,
      "##alignment exception": 507,
      "##ary": 508,
      "##part": 509,
      "## roo": 510,
      "##e block": 511,
      "## e": 512,
      "##72": 513,
      "##econd": 514,
      "## serv": 515,
      "##alignment exceptions": 516,
      "## m 0 n 9": 517,
      "## user": 518,
      "##allocat": 519,
      "##orary": 520,
      "## temporary": 521,
      "## 110": 522,
      "## 200811": 523,
      "## info df s fs name system block name system allocat": 524,
      "## info df s fs name system block name system allocate block": 525,
      "## user roo": 526,
      "## info df s fs name system block name system allocate block user roo": 527,
      "## task 200811": 528,
      "## temporary task 200811": 529,
      "##t rand": 530,
      "## 43": 531,
      "## 0 for block b lk": 532,
      "## info df s data node packet responder packet responder 0 for block b lk": 533,
      "## 2 for block b lk": 534,
      "## info df s data node packet responder packet responder 2 for block b lk": 535,
      "## 1 for block b lk": 536,
      "## info df s data node packet responder packet responder 1 for block b lk": 537,
      "## 214": 538,
      "## c j 02": 539,
      "## mic": 540,
      "## micro": 541,
      "## 0 part": 542,
      "## 38": 543,
      "## micros": 544,
      "##re": 545,
      "##07": 546,
      "## 2005 12 01": 547,
      "##1024": 548,
      "##47": 549,
      "## microsecond": 550,
      "##43": 551,
      "081109 2": 552,
      "##21": 553,
      "## 37": 554,
      "##ut": 555,
      "##arn": 556,
      "##45": 557,
      "## r 30": 558,
      "## c j 17": 559,
      "## c j 07": 560,
      "##pp": 561,
      "## info df s fs name system block name system allocate block user root rand": 562,
      "##um": 563,
      "## h": 564,
      "## c j 04": 565,
      "## warn": 566,
      "## c j 15": 567,
      "## u 01 2005 06": 568,
      "## cr": 569,
      "##ul": 570,
      "## c j 09": 571,
      "## c j 06": 572,
      "## c j 10": 573,
      "## 70": 574,
      "##im": 575,
      "## c j 08": 576,
      "## c j 13": 577,
      "## 64": 578,
      "## 40": 579,
      "## c j 03": 580,
      "## c j 05": 581,
      "## c j 14": 582,
      "## c j 11": 583,
      "##101024": 584,
      "## temporary task 200811101024": 585,
      "## pro": 586,
      "##31": 587,
      "##io": 588,
      "##95": 589,
      "081111 044": 590,
      "## 2005 09": 591,
      "## 47": 592,
      "## inp": 593,
      "081110 210": 594,
      "## iar 00": 595,
      "## 49": 596,
      "## u 01 ras kernel info generating core ": 597,
      "## u 11 ras kernel info generating core ": 598,
      "## input": 599,
      "## do": 600,
      "##ical": 601,
      "## 44": 602,
      "##ct": 603,
      "##61": 604,
      "## 50010 serv": 605,
      "## 50010 served block b lk": 606,
      "##2 m 0 n": 607,
      "##itical": 608,
      "## critical": 609,
      "## critical input": 610,
      "##02": 611,
      "## m 1 n 0": 612,
      "## 107": 613,
      "## critical input interrupt": 614,
      "## u 01 ras kernel info generating core": 615,
      "## u 11 ras kernel info generating core": 616,
      "##05": 617,
      "## 203": 618,
      "##ected": 619,
      "## 53": 620,
      "## cio": 621,
      "##73": 622,
      "##42": 623,
      "## microseconds": 624,
      "## 2005 11 03": 625,
      "##le": 626,
      "##ra": 627,
      "##76": 628,
      "##he": 629,
      "081111 10": 630,
      "## u 01 ras kernel fatal": 631,
      "##46": 632,
      "##ag": 633,
      "##48": 634,
      "## 2005 07 09": 635,
      "11209": 636,
      "## at": 637,
      "## 45": 638,
      "## 75": 639,
      "##hil": 640,
      "## 59": 641,
      "## 2005 06 14 r": 642,
      "## whil": 643,
      "## 54": 644,
      "## m 1 nc": 645,
      "##08": 646,
      "## 71": 647,
      "## warn df s": 648,
      "## corr": 649,
      "##0000": 650,
      "##015": 651,
      "## 74": 652,
      "## go": 653,
      "##06": 654,
      "## while s": 655,
      "## 50010 go": 656,
      "## warn df s data nod": 657,
      "##ing b lk": 658,
      "##erving b lk": 659,
      "##t exception while s": 660,
      "## 50010 got exception while s": 661,
      "## warn df s data node data x ce iver": 662,
      "## 50010 got exception while serving b lk": 663,
      "## u 11 2005 06": 664,
      "##03": 665,
      "## info df s data node data x ce iver 10 251": 666,
      "## cio d": 667,
      "## 55": 668,
      "## 57": 669,
      "## inst": 670,
      "##ction": 671,
      "## or": 672,
      "##93": 673,
      "##92": 674,
      "081110 12": 675,
      "## 199": 676,
      "##3 m 0 n": 677,
      "## 46": 678,
      "## 144": 679,
      "## 194": 680,
      "## 52": 681,
      "##96": 682,
      "11187": 683,
      "##98": 684,
      "## iar 0010": 685,
      "##ver": 686,
      "## po": 687,
      "## 90": 688,
      "## m 0 n 9 c j 16": 689,
      "## i j 18 u 11": 690,
      "## s rc 10 250": 691,
      "## de st 10 250": 692,
      "## 41": 693,
      "##ull": 694,
      "## node": 695,
      "## 56": 696,
      "## info df s fs name system block name system add stored block block map updated 10 250": 697,
      "##tal": 698,
      "## total": 699,
      "## sp": 700,
      "081110 11": 701,
      "## poin": 702,
      "##e h": 703,
      "## 28 info df s fs name system block name system delete b lk": 704,
      "## 36": 705,
      "##er alignment exceptions": 706,
      "## r 62 m 0 n": 707,
      "## e ": 708,
      "## r 30 m 0 n 9 c j 16": 709,
      "## tim": 710,
      "## 2005 11 04": 711,
      "## prog": 712,
      "## 123": 713,
      "081110 0": 714,
      "##umm": 715,
      "## m 0 n 0": 716,
      "## flo": 717,
      "## floating": 718,
      "##ce ": 719,
      "## doub": 720,
      "## doubl": 721,
      "## 2005 10": 722,
      "081110 01": 723,
      "## the": 724,
      "## m 1 n 4": 725,
      "##che ": 726,
      "##e humm": 727,
      "## double humm": 728,
      "## double hummer alignment exceptions": 729,
      "## point ": 730,
      "## r 37": 731,
      "## of size 67108864 from 10 250": 732,
      "## r 26": 733,
      "## max": 734,
      "## m 0 n 4": 735,
      "## warn df s data node data x ce iver 10 251": 736,
      "## 48": 737,
      "## r 20": 738,
      "## m 1 n 8": 739,
      "## i j 18 u 01": 740,
      "## 100": 741,
      "## null": 742,
      "##344": 743,
      "081111 09": 744,
      "##do": 745,
      "## dd": 746,
      "##51": 747,
      "## m 0 n 8": 748,
      "## 66": 749,
      "## 58": 750,
      "## r 24": 751,
      "## m 1 n 2": 752,
      "## 91": 753,
      "## 192": 754,
      "##s 0 microseconds": 755,
      "## critical input interrupts 0 microseconds": 756,
      "## 51": 757,
      "## floating point ": 758,
      "## floating point alignment exceptions": 759,
      "## 79": 760,
      "## r 22": 761,
      "## r 21": 762,
      "## 126": 763,
      "1120": 764,
      "081111 075": 765,
      "081111 065": 766,
      "##544": 767,
      "## m 0 na": 768,
      "## m 0 nc": 769,
      "##ab": 770,
      "## lin": 771,
      "##ram": 772,
      "## r 02": 773,
      "## r 27": 774,
      "## r 25": 775,
      "##and": 776,
      "##81": 777,
      "## is added to invalid set of 10 250": 778,
      "## gr": 779,
      "## program": 780,
      "## temporary task 200811101024 00": 781,
      "## m 1 nf": 782,
      "081111 04": 783,
      "## 237": 784,
      "## m 1 na": 785,
      "##01": 786,
      "## m 1 n 6": 787,
      "## 215": 788,
      "2015": 789,
      "## 225": 790,
      "## 209": 791,
      "## so": 792,
      "## 227": 793,
      "## 134": 794,
      "## m 1 n 3": 795,
      "## 80": 796,
      "## m 1 nb": 797,
      "## 85": 798,
      "## m 1 n 1": 799,
      "## m 1 nd": 800,
      "## m 1 n 7": 801,
      "##un": 802,
      "081110 103": 803,
      "## m 000": 804,
      "## m 1 n 9": 805,
      "##om": 806,
      "081110 22": 807,
      "## 0 part 00": 808,
      "## 65": 809,
      "## su": 810,
      "##859": 811,
      "## m 1 ne": 812,
      "##sk": 813,
      "##erat": 814,
      "## m 0 n 7": 815,
      "## m 1 n 5": 816,
      "## m 0 nb": 817,
      "## 240": 818,
      "## 106": 819,
      "##app": 820,
      "## r 36": 821,
      "##ig": 822,
      "## ras app": 823,
      "## ras app fatal": 824,
      "## ras app fatal cio d": 825,
      "##41": 826,
      "##ress": 827,
      "## r 63 m 0 n": 828,
      "## dear 0": 829,
      "## 88": 830,
      "##71": 831,
      "## 195": 832,
      "## ddr": 833,
      "## m 0 nd": 834,
      "081111 110": 835,
      "## r 23": 836,
      "##andl": 837,
      "kern": 838,
      "## mask": 839,
      "## m 0 ne": 840,
      "## tx": 841,
      "##able": 842,
      "## info df s fs name system block name system allocate block user root rand tx": 843,
      "## 196": 844,
      "## 193": 845,
      "## m 0 n 1": 846,
      "## 84": 847,
      "## m 0 n 3": 848,
      "## r 34": 849,
      "## tr": 850,
      "## m 0 n 6": 851,
      "## temporary task 200811101024 000": 852,
      "## u 11 ras kernel fatal": 853,
      "## m 0 n 2": 854,
      "## corrected": 855,
      "## 26 info df s fs name system block name system delete b lk": 856,
      "## 27 info df s fs name system block name system delete b lk": 857,
      "## red": 858,
      "## 2005 09 20": 859,
      "## r 31": 860,
      "## m 0 n 5": 861,
      "##159": 862,
      "## m 0 nf": 863,
      "## 30 info df s fs name system block name system delete b lk": 864,
      "##230": 865,
      "##temp": 866,
      "##od": 867,
      "## r 35": 868,
      "##eratur": 869,
      "##andler": 870,
      "##000": 871,
      "## m 00": 872,
      "##ru": 873,
      "## instru": 874,
      "## instruction": 875,
      "##e sym": 876,
      "## 224": 877,
      "## mask 0 x": 878,
      "## ce sym": 879,
      "## 0 x 00": 880,
      "11310": 881,
      "##149": 882,
      "## u 01 ras kernel fatal data": 883,
      "## gl": 884,
      "## 2005 07 23": 885,
      "## 188": 886,
      "## u 11 2005 06 14": 887,
      "## b gl": 888,
      "## 2005 07 13": 889,
      "##144": 890,
      "## gig": 891,
      "##ff": 892,
      "081111 07": 893,
      "## b lk 7": 894,
      "## 60": 895,
      "## tran": 896,
      "##t m": 897,
      "## gig e ": 898,
      "##of": 899,
      "## 0 part 01": 900,
      "081111 08": 901,
      "## ido": 902,
      "## mp": 903,
      "## 63": 904,
      "##100": 905,
      "## u 11 2005 07 09": 906,
      "081111 05": 907,
      "## 2005 08 26": 908,
      "## u 01 2005 07 09": 909,
      "## sw": 910,
      "## b lk 8": 911,
      "## det": 912,
      "## detected": 913,
      "##onn": 914,
      "##onnect": 915,
      "## on": 916,
      "##erature": 917,
      "## 73": 918,
      "## lo": 919,
      "##ign": 920,
      "## 160": 921,
      "##pache ": 922,
      "## apache ": 923,
      "##g apache ": 924,
      "##g apache had oop": 925,
      "##empt": 926,
      "081111 06": 927,
      "081110 15": 928,
      "## at 0 x": 929,
      "##all": 930,
      "## 2005 08 28": 931,
      "## info df s fs name system block name system allocate block user root rand txt": 932,
      "##tempt": 933,
      "081110 220": 934,
      "## u 01 2005 06 14": 935,
      "##245": 936,
      "081109 20": 937,
      "## 179": 938,
      "## r 16": 939,
      "2015 10": 940,
      "##114": 941,
      "##854": 942,
      "##354": 943,
      "##119": 944,
      "## 127": 945,
      "##ent ": 946,
      "## ras app fatal cio d error": 947,
      "## iar 0 x 00": 948,
      "## dear 0 x": 949,
      "## sign": 950,
      "## signal": 951,
      "## 197": 952,
      "## r 00": 953,
      "## 125": 954,
      "##130": 955,
      "## 114": 956,
      "##ort m": 957,
      "081110 14": 958,
      "## 0 c": 959,
      "## sour": 960,
      "## r 10": 961,
      "## transp": 962,
      "##ort m gr": 963,
      "## transport m gr": 964,
      "081111 03": 965,
      "##225": 966,
      "##ading": 967,
      "##age ": 968,
      "## 68": 969,
      "##649": 970,
      "## 242": 971,
      "##654": 972,
      "## 122": 973,
      "##213": 974,
      "## 198": 975,
      "##304": 976,
      "##iss": 977,
      "## map red": 978,
      "##end": 979,
      "## 202": 980,
      "##644": 981,
      "## mod": 982,
      "## u 01 ras kernel info iar 0010": 983,
      "## u 11 ras kernel info iar 0010": 984,
      "## org apache had oop": 985,
      "##ork": 986,
      "##604": 987,
      "##856": 988,
      "## time ": 989,
      "## link": 990,
      "##849": 991,
      "##1 50010": 992,
      "## 2005 12 01 r": 993,
      "##659": 994,
      "##724": 995,
      "##349": 996,
      "##125": 997,
      "##tl": 998,
      "## b lk 6": 999,
      "## 50010 is added to b lk 8": 1000,
      "## info df s data node data x ce iver receiving block b lk 8": 1001,
      "##544 e": 1002,
      "## iar 0 x 00544 e": 1003,
      "##214": 1004,
      "## ex": 1005,
      "## sc": 1006,
      "##ation": 1007,
      "## info df s data node data x ce iver receiving block b lk 7": 1008,
      "## 130": 1009,
      "##009": 1010,
      "##257": 1011,
      "##640": 1012,
      "##129": 1013,
      "## 50010 is added to b lk 7": 1014,
      "## ca": 1015,
      "## info df s data node packet responder received block b lk 7": 1016,
      "## info df s data node packet responder received block b lk 8": 1017,
      "## 239": 1018,
      "## inter": 1019,
      "##359": 1020,
      "##139": 1021,
      "##259": 1022,
      "##temperature": 1023,
      "## lb": 1024,
      "## t lb": 1025,
      "## t lb error": 1026,
      "## 211": 1027,
      "## b 111": 1028,
      "## 2005 06 11": 1029,
      "## dtl": 1030,
      "kern dtl": 1031,
      "## t lb error interrupt": 1032,
      "## dear 0 x 01": 1033,
      "kern dtl b 111": 1034,
      "## u 01 2005 06 11": 1035,
      "## u 01 ras kernel fatal data t lb error interrupt": 1036,
      "##655": 1037,
      "##109": 1038,
      "## r 30 m 0 n 9 c j 16 u 01 2005 06 11": 1039,
      "## 2005 06 11 r 30 m 0 n 9 c j 16 u 01 2005 06 11": 1040,
      "## r 30 m 0 n 9 c j 16 u 01 ras kernel fatal data t lb error interrupt": 1041,
      "##120": 1042,
      "##124": 1043,
      "## correct": 1044,
      "## r 01": 1045,
      "##650": 1046,
      "##254": 1047,
      "## a s": 1048,
      "##us": 1049,
      "##249": 1050,
      "##104": 1051,
      "## 213": 1052,
      "## send": 1053,
      "##311": 1054,
      "## r 12": 1055,
      "##fil": 1056,
      "## 2005 07 01": 1057,
      "##350": 1058,
      "## r 66": 1059,
      "## 112": 1060,
      "## to 10 250": 1061,
      "##y error": 1062,
      "##855": 1063,
      "##340": 1064,
      "##627": 1065,
      "##140": 1066,
      "##134": 1067,
      "1119": 1068,
      "##190": 1069,
      "##150": 1070,
      "## 109": 1071,
      "## r 67": 1072,
      "##204": 1073,
      "##804": 1074,
      "## m 1 n 0 c j 12": 1075,
      "##694": 1076,
      "##607": 1077,
      "##244": 1078,
      "## r 05": 1079,
      "##699": 1080,
      "11334": 1081,
      "##s w": 1082,
      "##154": 1083,
      "##674": 1084,
      "##679": 1085,
      "## r 06": 1086,
      "##246": 1087,
      "##sert": 1088,
      "## 27 info df s fs name system block name system add stored block block map updated 10 251": 1089,
      "## b lk 4": 1090,
      "## r 14": 1091,
      "## 34 info df s fs name system block name system add stored block block map updated 10 251": 1092,
      "## b lk 5": 1093,
      "## r 15": 1094,
      "## 30 info df s fs name system block name system add stored block block map updated 10 251": 1095,
      "##657": 1096,
      "## r 17": 1097,
      "## 96": 1098,
      "## 35 info df s fs name system block name system add stored block block map updated 10 251": 1099,
      "## 28 info df s fs name system block name system add stored block block map updated 10 251": 1100,
      "## 32 info df s fs name system block name system add stored block block map updated 10 251": 1101,
      "## v": 1102,
      "## 33 info df s fs name system block name system add stored block block map updated 10 251": 1103,
      "## r 04": 1104,
      "##850": 1105,
      "## 26 info df s fs name system block name system add stored block block map updated 10 251": 1106,
      "## 31 info df s fs name system block name system add stored block block map updated 10 251": 1107,
      "##b s": 1108,
      "##147": 1109,
      "## 29 info df s fs name system block name system add stored block block map updated 10 251": 1110,
      "##840": 1111,
      "## org apache had oop map red": 1112,
      "##240": 1113,
      "##647": 1114,
      "##assert": 1115,
      "##ance ": 1116,
      "## 0 x 000": 1117,
      "##355": 1118,
      "081111 090": 1119,
      "## r 13": 1120,
      "## time": 1121,
      "##309": 1122,
      "##645": 1123,
      "##imum": 1124,
      "## maximum": 1125,
      "##vent": 1126,
      "##145": 1127,
      "## u 11 2005 12 01": 1128,
      "## in a": 1129,
      "## handler": 1130,
      "##s was": 1131,
      "##317": 1132,
      "## u 01 2005 12 01": 1133,
      "## is": 1134,
      "## dur": 1135,
      "## during": 1136,
      "##ingle": 1137,
      "##ent in": 1138,
      "## instance ": 1139,
      "## the r": 1140,
      "## correctable": 1141,
      "##189": 1142,
      "##for a s": 1143,
      "## a correctable": 1144,
      "## microseconds was": 1145,
      "## microseconds sp": 1146,
      "## the maximum": 1147,
      "##of a correctable": 1148,
      "## signal handler": 1149,
      "## time for a s": 1150,
      "##b s signal handler": 1151,
      "##ingle instance ": 1152,
      "##ent in the r": 1153,
      "## microseconds was the maximum": 1154,
      "## microseconds spent in the r": 1155,
      "##of a correctable ddr": 1156,
      "## time for a single instance ": 1157,
      "##b s signal handler during": 1158,
      "## microseconds was the maximum time for a single instance ": 1159,
      "## microseconds spent in the rb s signal handler during": 1160,
      "## microseconds was the maximum time for a single instance of a correctable ddr": 1161,
      "##on critical input interrupts 0 microseconds": 1162,
      "## interrupts 0": 1163,
      "## total sp": 1164,
      "## total interrupts 0": 1165,
      "## max time": 1166,
      "## critical input interrupts 0 microseconds total sp": 1167,
      "##ent on critical input interrupts 0 microseconds": 1168,
      "## in a critical input interrupt": 1169,
      "## total interrupts 0 critical input interrupts 0 microseconds total sp": 1170,
      "## max time in a critical input interrupt": 1171,
      "##ent on critical input interrupts 0 microseconds max time in a critical input interrupt": 1172,
      "## total interrupts 0 critical input interrupts 0 microseconds total spent on critical input interrupts 0 microseconds max time in a critical input interrupt": 1173,
      "## 0 microseconds spent in the rb s signal handler during": 1174,
      "##s 0 microseconds was the maximum time for a single instance of a correctable ddr": 1175,
      "##alls 0 microseconds was the maximum time for a single instance of a correctable ddr": 1176,
      "## 0 calls 0 microseconds was the maximum time for a single instance of a correctable ddr": 1177,
      "## 0 microseconds spent in the rb s signal handler during 0 calls 0 microseconds was the maximum time for a single instance of a correctable ddr": 1178,
      "##187": 1179,
      "##605": 1180,
      "##127": 1181,
      "##807": 1182,
      "##e error": 1183,
      "##250": 1184,
      "##216": 1185,
      "## 159": 1186,
      "##188": 1187,
      "## 18 info df s fs data set deleting block b lk": 1188,
      "## 129": 1189,
      "## com": 1190,
      "##169": 1191,
      "113344": 1192,
      "##845": 1193,
      "##305": 1194,
      "## task at": 1195,
      "##117": 1196,
      "##if": 1197,
      "##347": 1198,
      "##345": 1199,
      "##399": 1200,
      "##ail": 1201,
      "##207": 1202,
      "## r 11": 1203,
      "##itch": 1204,
      "## 223": 1205,
      "##connect": 1206,
      "## interconnect": 1207,
      "081110 1030": 1208,
      "## modul": 1209,
      "##cce": 1210,
      "##address": 1211,
      "11213": 1212,
      "## switch": 1213,
      "##670": 1214,
      "## detected a": 1215,
      "## switch modul": 1216,
      "##004": 1217,
      "##379": 1218,
      "##110": 1219,
      "## info df s data node data x ce iver receiving block b lk 6": 1220,
      "##199": 1221,
      "##329": 1222,
      "##357": 1223,
      "## 50010 is added to b lk 6": 1224,
      "## succe": 1225,
      "## b lk 3": 1226,
      "##135": 1227,
      "##ication": 1228,
      "##646": 1229,
      "##307": 1230,
      "##656": 1231,
      "##107": 1232,
      "##158": 1233,
      "## info df s data node packet responder received block b lk 6": 1234,
      "##ann": 1235,
      "##805": 1236,
      "## 245": 1237,
      "##105": 1238,
      "##155": 1239,
      "##217": 1240,
      "##209": 1241,
      "## 1 n": 1242,
      "##847": 1243,
      "## r 7": 1244,
      "## im": 1245,
      "##258": 1246,
      "##eded": 1247,
      "## 147": 1248,
      "##205": 1249,
      "##157": 1250,
      "## un": 1251,
      "##374": 1252,
      "##194": 1253,
      "##age": 1254,
      "##2030": 1255,
      "## 89": 1256,
      "## 207": 1257,
      "##648": 1258,
      "## 228": 1259,
      "## r 33": 1260,
      "##247": 1261,
      "## succeeded": 1262,
      "##parit": 1263,
      "##er ver": 1264,
      "##parity error": 1265,
      "11311": 1266,
      "##200": 1267,
      "## event": 1268,
      "##ist": 1269,
      "##137": 1270,
      "##857": 1271,
      "##375": 1272,
      "##ification": 1273,
      "##606": 1274,
      "## dear 02": 1275,
      "##394": 1276,
      "##327": 1277,
      "## info df s data node data x ce iver receiving block b lk 5": 1278,
      "##qu": 1279,
      "## 177": 1280,
      "##pc": 1281,
      "##312": 1282,
      "## 50010 is added to b lk 5": 1283,
      "##299": 1284,
      "##389": 1285,
      "## block sc": 1286,
      "## data block sc": 1287,
      "## data block scann": 1288,
      "## info df s data block scann": 1289,
      "## 13 info df s data block scann": 1290,
      "## succeeded for": 1291,
      "##er verification": 1292,
      "## 13 info df s data block scanner verification": 1293,
      "## 13 info df s data block scanner verification succeeded for": 1294,
      "##ard": 1295,
      "##879": 1296,
      "##690": 1297,
      "##658": 1298,
      "## r 32": 1299,
      "## 146": 1300,
      "##170": 1301,
      "##e c": 1302,
      "##ess": 1303,
      "##884": 1304,
      "##255": 1305,
      "##695": 1306,
      "## 175": 1307,
      "##115": 1308,
      "##608": 1309,
      "## 246": 1310,
      "## info df s data node data x ce iver receiving block b lk 4": 1311,
      "## app": 1312,
      "## info df s data node packet responder received block b lk 5": 1313,
      "##356": 1314,
      "##300": 1315,
      "##370": 1316,
      "## 50010 is added to b lk 4": 1317,
      "111877": 1318,
      "##346": 1319,
      "##227": 1320,
      "##294": 1321,
      "##808": 1322,
      "##ory": 1323,
      "## miss": 1324,
      "## missing": 1325,
      "##806": 1326,
      "## 2005 07 28": 1327,
      "##138": 1328,
      "## info df s data node packet responder received block b lk 4": 1329,
      "##239": 1330,
      "##874": 1331,
      "## loading": 1332,
      "## ras app fatal cio d error loading": 1333,
      "## 19 info df s fs data set deleting block b lk 7": 1334,
      "## program im": 1335,
      "##126": 1336,
      "##167": 1337,
      "## node ": 1338,
      "## 143": 1339,
      "## card": 1340,
      "##306": 1341,
      "##it ": 1342,
      "##106": 1343,
      "##889": 1344,
      "##697": 1345,
      "##339": 1346,
      "##146": 1347,
      "##348": 1348,
      "## 102": 1349,
      "##174": 1350,
      "##899": 1351,
      "## cache ": 1352,
      "## invalid or": 1353,
      "## missing program im": 1354,
      "## invalid or missing program im": 1355,
      "##206": 1356,
      "##156": 1357,
      "081111 023": 1358,
      "##880": 1359,
      "##894": 1360,
      "##136": 1361,
      "##653": 1362,
      "##256": 1363,
      "##358": 1364,
      "## 29 info df s fs name system block name system delete b lk": 1365,
      "## 34 info df s fs name system block name system delete b lk": 1366,
      "## r 03": 1367,
      "##148": 1368,
      "## r 02 m 1 n 0 c j 12": 1369,
      "##e i": 1370,
      "## fun": 1371,
      "##128": 1372,
      "## 0 0": 1373,
      "##848": 1374,
      "## 32 info df s fs name system block name system delete b lk": 1375,
      "## function": 1376,
      "##696": 1377,
      "## dis": 1378,
      "## 35 info df s fs name system block name system delete b lk": 1379,
      "##449": 1380,
      "##846": 1381,
      "## work": 1382,
      "##319": 1383,
      "## rt": 1384,
      "##290": 1385,
      "## r 07": 1386,
      "##179": 1387,
      "##108": 1388,
      "##185": 1389,
      "##236": 1390,
      "## 19 info df s fs data set deleting block b lk 8": 1391,
      "##274": 1392,
      "##440": 1393,
      "##677": 1394,
      "## 191": 1395,
      "##092030": 1396,
      "##099": 1397,
      "##092030 000": 1398,
      "## temporary task 200811092030 000": 1399,
      "##ion 0": 1400,
      "##444": 1401,
      "## cache parity error": 1402,
      "##248": 1403,
      "##208": 1404,
      "##308": 1405,
      "## instruction cache parity error": 1406,
      "## instruction cache parity error corrected": 1407,
      "##xy": 1408,
      "##279": 1409,
      "##219": 1410,
      "##675": 1411,
      "## u 01 ras kernel info ce sym": 1412,
      "##094": 1413,
      "##377": 1414,
      "##nd corrected": 1415,
      "## detected and corrected": 1416,
      "## mc": 1417,
      "##211": 1418,
      "##315": 1419,
      "## 1 link": 1420,
      "##235": 1421,
      "## as": 1422,
      "## mpl": 1423,
      "##870": 1424,
      "## i mpl": 1425,
      "##447": 1426,
      "##ol": 1427,
      "## k": 1428,
      "## 50010 is added to b lk 3": 1429,
      "##d p": 1430,
      "## info df s data node data x ce iver receiving block b lk 3": 1431,
      "## u 11 ras kernel info instruction cache parity error corrected": 1432,
      "##390": 1433,
      "## mess": 1434,
      "## 150": 1435,
      "## 99": 1436,
      "##e 0": 1437,
      "##643": 1438,
      "##238": 1439,
      "## info df s data node packet responder received block b lk 3": 1440,
      "##00 double hummer alignment exceptions": 1441,
      "##e or": 1442,
      "081111 0230": 1443,
      "##address 0 x 000": 1444,
      "## stat": 1445,
      "081110 00": 1446,
      "## switch module error": 1447,
      "##229": 1448,
      "##890": 1449,
      "##age p": 1450,
      "## 1 link error": 1451,
      "##260": 1452,
      "##885": 1453,
      "##mb": 1454,
      "11179": 1455,
      "##116": 1456,
      "## 2005 06 05": 1457,
      "## u 11 2005 07 23": 1458,
      "## 2005 11 03 15": 1459,
      "##313": 1460,
      "##pi": 1461,
      "## u 01 2005 07 13": 1462,
      "##118": 1463,
      "## u 01 2005 07 23": 1464,
      "##237": 1465,
      "##310": 1466,
      "## pa": 1467,
      "## r 000": 1468,
      "##ition": 1469,
      "## gig e temperature": 1470,
      "##007": 1471,
      "##704": 1472,
      "## 189": 1473,
      "## db": 1474,
      "## proxy": 1475,
      "## u 11 2005 07 13": 1476,
      "## 229": 1477,
      "##215": 1478,
      "##338": 1479,
      "##337": 1480,
      "## tra": 1481,
      "##1 terminating": 1482,
      "##over": 1483,
      "##877": 1484,
      "## ch": 1485,
      "## worker": 1486,
      "##266": 1487,
      "## u 11 2005 11": 1488,
      "## 7 2": 1489,
      "##270": 1490,
      "##ix": 1491,
      "## packet": 1492,
      "##175": 1493,
      "##cover": 1494,
      "##397": 1495,
      "##858": 1496,
      "## null dis": 1497,
      "## null discover": 1498,
      "##165": 1499,
      "##314": 1500,
      "2015 10 17": 1501,
      "##212": 1502,
      "##297": 1503,
      "##887": 1504,
      "## u 11 ras kernel info ce sym": 1505,
      "##678": 1506,
      "##698": 1507,
      "## direct": 1508,
      "##508": 1509,
      "##160": 1510,
      "##184": 1511,
      "##005": 1512,
      "##875": 1513,
      "## 2005 06 25": 1514,
      "##676": 1515,
      "##164": 1516,
      "##336": 1517,
      "##197": 1518,
      "##289": 1519,
      "## 86": 1520,
      "##295": 1521,
      "##s m": 1522,
      "081111 0859": 1523,
      "##325": 1524,
      "##554": 1525,
      "## 2005 11 04 r 62 m 0 n": 1526,
      "## 19 info df s fs data set deleting block b lk 6": 1527,
      "##749": 1528,
      "##395": 1529,
      "081111 0756": 1530,
      "## fail": 1531,
      "kern dtl b 11185": 1532,
      "##549": 1533,
      "##1 size 67108864": 1534,
      "##324": 1535,
      "##atch": 1536,
      "## directory": 1537,
      "##177": 1538,
      "##090": 1539,
      "##888": 1540,
      "##234": 1541,
      "## no su": 1542,
      "## no such": 1543,
      "## file or": 1544,
      "## no such file or": 1545,
      "## no such file or directory": 1546,
      "## r 33 m 0 n": 1547,
      "##740": 1548,
      "## in t": 1549,
      "## line": 1550,
      "##est": 1551,
      "##335": 1552,
      "##195": 1553,
      "##224": 1554,
      "##180": 1555,
      "## u 01 2005 11": 1556,
      "##277": 1557,
      "##559": 1558,
      "## 210": 1559,
      "## 220": 1560,
      "##876": 1561,
      "## 97": 1562,
      "## null ra": 1563,
      "##s m mc": 1564,
      "## null ras m mc": 1565,
      "##am": 1566,
      "##445": 1567,
      "## 180": 1568,
      "##210": 1569,
      "##s error": 1570,
      "## locat": 1571,
      "## null ras m mcs error": 1572,
      "## null ras m mcs error ido": 1573,
      "##897": 1574,
      "##268": 1575,
      "##334": 1576,
      "##895": 1577,
      "##759": 1578,
      "##186": 1579,
      "##286": 1580,
      "## con": 1581,
      "##285": 1582,
      "##275": 1583,
      "##008": 1584,
      "## 98": 1585,
      "##330": 1586,
      "##754": 1587,
      "## r 32 m 0 n": 1588,
      "## hom": 1589,
      "##396": 1590,
      "##886": 1591,
      "##265": 1592,
      "## 19 info df s fs data set deleting block b lk 4": 1593,
      "## 1043": 1594,
      "## trace": 1595,
      "##550": 1596,
      "## 19 info df s fs data set deleting block b lk 5": 1597,
      "##267": 1598,
      "## db h": 1599,
      "## proxy db h": 1600,
      "##220": 1601,
      "## source": 1602,
      "##c t": 1603,
      "##006": 1604,
      "## cond": 1605,
      "## condition": 1606,
      "## source ": 1607,
      "##press": 1608,
      "## cpp": 1609,
      "##t express": 1610,
      "##sert express": 1611,
      "##file i": 1612,
      "##assert condition": 1613,
      "##it assert condition": 1614,
      "## function in t": 1615,
      "## assert express": 1616,
      "## null ras m mcs error ido proxy db h": 1617,
      "## source file i": 1618,
      "## cpp source": 1619,
      "##it assert condition assert express": 1620,
      "## function in t ido": 1621,
      "## null ras m mcs error ido proxy db hit assert condition assert express": 1622,
      "## source file ido": 1623,
      "##m gr": 1624,
      "##166": 1625,
      "081110 1035": 1626,
      "##tempt 144": 1627,
      "##v trace": 1628,
      "##l pa": 1629,
      "##ud p": 1630,
      "## i do": 1631,
      "## b glc t": 1632,
      "## transport m gr send": 1633,
      "## transport m gr cpp source": 1634,
      "##ion 0 source file ido": 1635,
      "## packet i do": 1636,
      "## line 1043": 1637,
      "## function in t ido transport m gr send": 1638,
      "## null ras m mcs error ido proxy db hit assert condition assert expression 0 source file ido": 1639,
      "##m gr b glc t": 1640,
      "##l pav trace": 1641,
      "##ud pm gr b glc t": 1642,
      "## transport m gr cpp source line 1043": 1643,
      "## packet i doud pm gr b glc t": 1644,
      "## function in t ido transport m gr send packet i doud pm gr b glc t": 1645,
      "## null ras m mcs error ido proxy db hit assert condition assert expression 0 source file ido transport m gr cpp source line 1043": 1646,
      "## function in t ido transport m gr send packet i doud pm gr b glc tl pav trace": 1647,
      "## null ras m mcs error ido proxy db hit assert condition assert expression 0 source file ido transport m gr cpp source line 1043 function in t ido transport m gr send packet i doud pm gr b glc tl pav trace": 1648,
      "## ef": 1649,
      "##296": 1650,
      "##097": 1651,
      "##ain": 1652,
      "081110 144": 1653,
      "##280": 1654,
      "## dear 0244": 1655,
      "##pir": 1656,
      "## expir": 1657,
      "## from 10 251": 1658,
      "##287": 1659,
      "##799": 1660,
      "##264": 1661,
      "081110 08": 1662,
      "## s detected and corrected": 1663,
      "## ddr error": 1664,
      "## m 1 nc c j 02": 1665,
      "## 149": 1666,
      "##376": 1667,
      "##288": 1668,
      "##1 s rc 10 251": 1669,
      "## r 62": 1670,
      "##705": 1671,
      "## 204": 1672,
      "## interv": 1673,
      "## interval": 1674,
      "## event interval": 1675,
      "## expired": 1676,
      "## event interval expired": 1677,
      "## 1 link error event interval expired": 1678,
      "081109 23": 1679,
      "##00000": 1680,
      "##750": 1681,
      "##385": 1682,
      "##320": 1683,
      "##896": 1684,
      "##168": 1685,
      "##269": 1686,
      "##act": 1687,
      "## 2005 07 15": 1688,
      "##196": 1689,
      "##378": 1690,
      "##446": 1691,
      "## is no": 1692,
      "##176": 1693,
      "##095": 1694,
      "## 192 50010": 1695,
      "## failed": 1696,
      "##387": 1697,
      "##504": 1698,
      "## info df s data node data x ce iver 10 250": 1699,
      "##398": 1700,
      "##448": 1701,
      "## 243": 1702,
      "## 2005 06 30": 1703,
      "## task attempt": 1704,
      "## dear 0244 c": 1705,
      "##098": 1706,
      "## warning": 1707,
      "##547": 1708,
      "## ipc": 1709,
      "081110 111": 1710,
      "##2 terminating": 1711,
      "##555": 1712,
      "##384": 1713,
      "##707": 1714,
      "##096": 1715,
      "## 2005 08 28 r": 1716,
      "## net": 1717,
      "## 2005 08 26 12": 1718,
      "## list": 1719,
      "##790": 1720,
      "## listener": 1721,
      "##198": 1722,
      "##747": 1723,
      "## u 01 2005 06 14 10": 1724,
      "## u 11 2005 06 14 10": 1725,
      "## node card": 1726,
      "081110 000": 1727,
      "## rts": 1728,
      "## 226": 1729,
      "##1 file m nt had oop df s data current sub dir": 1730,
      "##276": 1731,
      "## 116": 1732,
      "##364": 1733,
      "## 236": 1734,
      "##745": 1735,
      "##369": 1736,
      "## b gl app": 1737,
      "##298": 1738,
      "## 105": 1739,
      "## 8 dear 0 x 01": 1740,
      "##ust": 1741,
      "## 19 info df s fs data set deleting block b lk 3": 1742,
      "##507": 1743,
      "##art": 1744,
      "##284": 1745,
      "##1 of size 67108864 from 10 251": 1746,
      "##ize": 1747,
      "## 155": 1748,
      "##223": 1749,
      "## u 01 2005 11 04": 1750,
      "##794": 1751,
      "## i j 18 u 11 ras kernel info": 1752,
      "##367": 1753,
      "##178": 1754,
      "##3 terminating": 1755,
      "## u 11 2005 11 04": 1756,
      "##es ": 1757,
      "## r 61": 1758,
      "##686": 1759,
      "##380": 1760,
      "##365": 1761,
      "## r 60": 1762,
      "##2 size 67108864": 1763,
      "##040": 1764,
      "11221": 1765,
      "##540": 1766,
      "## 255": 1767,
      "## 11468": 1768,
      "##594": 1769,
      "## 1146800 double hummer alignment exceptions": 1770,
      "##001": 1771,
      "##386": 1772,
      "## se": 1773,
      "## null discovery": 1774,
      "## ed": 1775,
      "##388": 1776,
      "##278": 1777,
      "## 15 23": 1778,
      "##898": 1779,
      "## 2005 09 20 12": 1780,
      "##ream": 1781,
      "##ize 35": 1782,
      "## has": 1783,
      "##323": 1784,
      "## 115": 1785,
      "##557": 1786,
      "## 5 temporary task 200811101024 00": 1787,
      "##366": 1788,
      "##757": 1789,
      "##556": 1790,
      "##360": 1791,
      "##3 size 67108864": 1792,
      "##706": 1793,
      "##1 de st 10 251": 1794,
      "1118": 1795,
      "##748": 1796,
      "## 3 temporary task 200811101024 000": 1797,
      "## 174": 1798,
      "## 0 part 0": 1799,
      "## goo": 1800,
      "## cl": 1801,
      "## sy": 1802,
      "112724": 1803,
      "## stream": 1804,
      "##708": 1805,
      "##handler": 1806,
      "##878": 1807,
      "## r 37 m 1 nc c j 02": 1808,
      "##545": 1809,
      "##ient": 1810,
      "081111 094": 1811,
      "## r 63": 1812,
      "##316": 1813,
      "## r 65": 1814,
      "##368": 1815,
      "##668": 1816,
      "081110 110": 1817,
      "11204": 1818,
      "11225": 1819,
      "##er handler": 1820,
      "## good": 1821,
      "##3 a": 1822,
      "##756": 1823,
      "11197": 1824,
      "## 161": 1825,
      "## ipc serv": 1826,
      "## start": 1827,
      "##666": 1828,
      "## 166": 1829,
      "## u 11 2005 07 01": 1830,
      "081111 100": 1831,
      "## 2 temporary task 200811101024 000": 1832,
      "## 235": 1833,
      "## 2005 09 20 null": 1834,
      "## 101": 1835,
      "##activ": 1836,
      "##746": 1837,
      "## u 01 2005 07 01": 1838,
      "## 17 04": 1839,
      "## 1 a": 1840,
      "081111 1104": 1841,
      "## program interrupt": 1842,
      "## qu": 1843,
      "## info ipc serv": 1844,
      "##226": 1845,
      "## u 01 ras kernel info 0 microseconds spent in the rb s signal handler during 0 calls 0 microseconds was the maximum time for a single instance of a correctable ddr": 1846,
      "##505": 1847,
      "## sor": 1848,
      "## 20 16": 1849,
      "## r 64": 1850,
      "## info ipc server handler": 1851,
      "## 2005 09 20 null 2005 09 20 12": 1852,
      "## org apache had oop map red task attempt": 1853,
      "## listener i mpl": 1854,
      "## org apache had oop map red task attempt listener i mpl": 1855,
      "## 2005 07 20": 1856,
      "##326": 1857,
      "## sever": 1858,
      "## u 11 ras kernel info 0 microseconds spent in the rb s signal handler during 0 calls 0 microseconds was the maximum time for a single instance of a correctable ddr": 1859,
      "##777": 1860,
      "## iar 003 a": 1861,
      "##318": 1862,
      "##t sor": 1863,
      "## info df s fs name system block name system allocate block user root sor": 1864,
      "## info df s fs name system block name system allocate block user root sort rand": 1865,
      "## dear 024": 1866,
      "## storage": 1867,
      "## 8 floating point alignment exceptions": 1868,
      "##ev": 1869,
      "## warn df s data node data x ce iver 10 250": 1870,
      "## 2005 06 26": 1871,
      "## 2005 07 17": 1872,
      "## cont": 1873,
      "##599": 1874,
      "##2 s rc 10 251": 1875,
      "## u 11 2005 12": 1876,
      "## received": 1877,
      "## u 11 2005 12 01 06": 1878,
      "## 77": 1879,
      "## socket": 1880,
      "##1 is added to invalid set of 10 251": 1881,
      "## u 01 2005 12 01 08": 1882,
      "##546": 1883,
      "##322": 1884,
      "## u 01 2005 12 01 06": 1885,
      "## 128": 1886,
      "## 13 info df s data block scanner verification succeeded for b lk": 1887,
      "## i j 18 u 01 ras kernel info": 1888,
      "## u 11 2005 12 01 08": 1889,
      "##795": 1890,
      "##218": 1891,
      "## r 02 m 1 n 0 c j 12 u 11 ras kernel info instruction cache parity error corrected": 1892,
      "##2 16": 1893,
      "##e stat": 1894,
      "##949": 1895,
      "## 227 50010": 1896,
      "## 225 50010": 1897,
      "##758": 1898,
      "## 196 50010": 1899,
      "## 16 50010": 1900,
      "## 240 50010": 1901,
      "## storage interrupt": 1902,
      "k ": 1903,
      "##st or": 1904,
      "##ernst or": 1905,
      "k ernst or": 1906,
      "k ernst or 111": 1907,
      "##940": 1908,
      "## 2005 07 07": 1909,
      "## files": 1910,
      "2015 07": 1911,
      "081110 1037": 1912,
      "## i j 18 u 01 ras kernel info cio d": 1913,
      "##ize 2": 1914,
      "## 209 50010": 1915,
      "##heck": 1916,
      "##3 s rc 10 251": 1917,
      "## 176": 1918,
      "## 134 50010": 1919,
      "## 0 mask 0 x": 1920,
      "## 69": 1921,
      "app": 1922,
      "##506": 1923,
      "## 237 50010": 1924,
      "##796": 1925,
      "##797": 1926,
      "## core ": 1927,
      "## address 0 x 000": 1928,
      "## core fil": 1929,
      "081110 07": 1930,
      "##for program": 1931,
      "## generated": 1932,
      "##es for program": 1933,
      "## core files for program": 1934,
      "##558": 1935,
      "## res": 1936,
      "##wn": 1937,
      "081110 2209": 1938,
      "##2 file m nt had oop df s data current sub dir": 1939,
      "##2 de st 10 251": 1940,
      "##328": 1941,
      "## switch module error 10": 1942,
      "##ystem": 1943,
      "## filesystem": 1944,
      "## by": 1945,
      "##228": 1946,
      "## iar 003 a 9": 1947,
      "## 2005 07 04": 1948,
      "1125": 1949,
      "##er filesystem": 1950,
      "## dear 00": 1951,
      "##2 of size 67108864 from 10 251": 1952,
      "##548": 1953,
      "##1 info df s data node data x ce iver receiving block b lk": 1954,
      "## dear 0245": 1955,
      "##e t": 1956,
      "## 113": 1957,
      "## i j 18 u 11 ras kernel info cio d": 1958,
      "## send worker": 1959,
      "##595": 1960,
      "## spa": 1961,
      "## location": 1962,
      "## comm": 1963,
      "##590": 1964,
      "## message p": 1965,
      "##fix": 1966,
      "## to 17": 1967,
      "##refix": 1968,
      "## cio stream": 1969,
      "## 96 116": 1970,
      "## socket to 17": 1971,
      "##2 16 96 116": 1972,
      "## message prefix": 1973,
      "## cio stream socket to 17": 1974,
      "## cio stream socket to 172 16 96 116": 1975,
      "##3 de st 10 251": 1976,
      "##049": 1977,
      "##947": 1978,
      "## u 01 2005 07 28": 1979,
      "##1 info df s data node packet responder received block b lk": 1980,
      "##3 of size 67108864 from 10 251": 1981,
      "## connect": 1982,
      "##3 file m nt had oop df s data current sub dir": 1983,
      "##776": 1984,
      "## fc": 1985,
      "## i j 18 u 01 ras app fatal cio d error loading": 1986,
      "## be": 1987,
      "## rts invalid or missing program im": 1988,
      "## 10 6": 1989,
      "## u 11 2005 07 28": 1990,
      "k ernst or 11187": 1991,
      "## th": 1992,
      "##orum": 1993,
      "081111 085": 1994,
      "## u 11 2005 10": 1995,
      "## b gl apps": 1996,
      "## i j 18 u 11 ras app fatal cio d error loading": 1997,
      "##e 1": 1998,
      "## quorum": 1999,
      "##f 0": 2000,
      "## b lk 2": 2001,
      "## man": 2002,
      "##sm": 2003,
      "## 2005 08 28 02": 2004,
      "## manag": 2005,
      "##f f": 2006,
      "## u 01 2005 06 05": 2007,
      "##798": 2008,
      "11202": 2009,
      "##no": 2010,
      "## 26 8": 2011,
      "## 42 9": 2012,
      "## 2005 06 14 r 27": 2013,
      "##res": 2014,
      "## 2005 07 26": 2015,
      "##182": 2016,
      "## 83": 2017,
      "## 2005 06 29": 2018,
      "## 2005 07 03": 2019,
      "## 94": 2020,
      "##nown": 2021,
      "## 1 f": 2022,
      "## 26 13": 2023,
      "##945": 2024,
      "081111 040": 2025,
      "## 163": 2026,
      "## 11 53": 2027,
      "## manager": 2028,
      "## 2005 08 03": 2029,
      "## 2005 06 14 r 26": 2030,
      "##mbient": 2031,
      "## interconnect 1 n": 2032,
      "##597": 2033,
      "## connection": 2034,
      "##778": 2035,
      "##known": 2036,
      "## i j 18 u 11 2005 11": 2037,
      "## unknown": 2038,
      "## 2005 11 03 14": 2039,
      "## 14 38": 2040,
      "11250": 2041,
      "## node temperature": 2042,
      "## 1 ambient": 2043,
      "## interconnect 0": 2044,
      "## unknown location": 2045,
      "## 30 6": 2046,
      "## 31 5": 2047,
      "## 29 19": 2048,
      "112216": 2049,
      "## 26 19": 2050,
      "081110 09": 2051,
      "##ew": 2052,
      "## 70 5": 2053,
      "##907": 2054,
      "## 132": 2055,
      "## reading": 2056,
      "## b lk 9": 2057,
      "## 5 floating point alignment exceptions": 2058,
      "## 121": 2059,
      "## ras app fatal cio d error reading": 2060,
      "## ras app fatal cio d error reading message prefix": 2061,
      "112026": 2062,
      "## 2005 08 12": 2063,
      "## c n": 2064,
      "##work": 2065,
      "## network": 2066,
      "111980": 2067,
      "## file m nt had oop df s data current sub dir 6": 2068,
      "## 67 4": 2069,
      "##e a": 2070,
      "## m 00000": 2071,
      "##143": 2072,
      "11224": 2073,
      "## sw l": 2074,
      "## de st 10 251 214": 2075,
      "##enable": 2076,
      "## latch": 2077,
      "##cess": 2078,
      "## 38 53": 2079,
      "##2 is added to invalid set of 10 251": 2080,
      "##asserted": 2081,
      "##x manager": 2082,
      "## quorum c n": 2083,
      "## quorum c nx manager": 2084,
      "## interconnect 0 n": 2085,
      "##343": 2086,
      "## per": 2087,
      "##attempt 144": 2088,
      "## 201": 2089,
      "## 67 211": 2090,
      "## 75 143": 2091,
      "## 10 144": 2092,
      "##tempt ": 2093,
      "## s rc 10 251 214": 2094,
      "2015 07 29 19": 2095,
      "## 43 21": 2096,
      "##999": 2097,
      "##133": 2098,
      "## 35 1": 2099,
      "##enable 0": 2100,
      "##pl": 2101,
      "## 122 79": 2102,
      "## bit": 2103,
      "##652": 2104,
      "## 195 33": 2105,
      "##tempt attempt 144": 2106,
      "## 107 19": 2107,
      "## 194 245": 2108,
      "## de st 10 251 203": 2109,
      "## 90 8": 2110,
      "##s of": 2111,
      "## u 01 2005 11 03 15": 2112,
      "##gin": 2113,
      "## de st 10 251 39": 2114,
      "## 127 47": 2115,
      "## 111 228": 2116,
      "##303": 2117,
      "## 199 86": 2118,
      "## 89 155": 2119,
      "## 11 194": 2120,
      "## 43 115": 2121,
      "## 38 214": 2122,
      "## 6 223": 2123,
      "## 30 85": 2124,
      "## 70 211": 2125,
      "## 75 163": 2126,
      "## 50010 is added to b lk 2": 2127,
      "##t f": 2128,
      "## 31 160": 2129,
      "## u 11 2005 11 03 15": 2130,
      "## 193 175": 2131,
      "## 42 84": 2132,
      "## 42 207": 2133,
      "##552": 2134,
      "## 6 4": 2135,
      "##113": 2136,
      "## 110 160": 2137,
      "## 122 65": 2138,
      "## 10 100": 2139,
      "##642": 2140,
      "## s rc 10 251 203": 2141,
      "## 126 83": 2142,
      "## 26 177": 2143,
      "## 7 32": 2144,
      "## 110 68": 2145,
      "##e status": 2146,
      "## node status": 2147,
      "## 74 79": 2148,
      "## 111 130": 2149,
      "## 27 63": 2150,
      "## task attempt attempt 144": 2151,
      "##132": 2152,
      "##142": 2153,
      "## 110 8": 2154,
      "## 106 50": 2155,
      "## 105 189": 2156,
      "## 31 85": 2157,
      "## 123 20": 2158,
      "## main": 2159,
      "## 31 242": 2160,
      "## 198 33": 2161,
      "## 10 223": 2162,
      "## 66 63": 2163,
      "## 199 159": 2164,
      "## been": 2165,
      "## 42 246": 2166,
      "## u 11 ras kernel fatal data": 2167,
      "## 7 146": 2168,
      "## 70 112": 2169,
      "## 38 197": 2170,
      "## status": 2171,
      "## process": 2172,
      "## 71 193": 2173,
      "## 43 210": 2174,
      "## 10 213": 2175,
      "## 123 1": 2176,
      "## 2005 11 03 r 67": 2177,
      "## 6 214": 2178,
      "## 215 50": 2179,
      "## 126 5": 2180,
      "## 67 113": 2181,
      "## 199 19": 2182,
      "##04 ed": 2183,
      "081110 13": 2184,
      "## 106 37": 2185,
      "## 199 245": 2186,
      "## 75 49": 2187,
      "## 126 22": 2188,
      "## info main": 2189,
      "## 194 129": 2190,
      "## has been": 2191,
      "## mach": 2192,
      "## s rc 10 251 39": 2193,
      "## machin": 2194,
      "## 70 37": 2195,
      "## 194 213": 2196,
      "## 199 150": 2197,
      "## 111 37": 2198,
      "## 30 179": 2199,
      "## 125 174": 2200,
      "## 73 188": 2201,
      "## 121 224": 2202,
      "## 13 188": 2203,
      "## 91 15": 2204,
      "## 29 239": 2205,
      "## u 01 2005 06 25": 2206,
      "## 73 220": 2207,
      "## 193 224": 2208,
      "## 17 177": 2209,
      "## 18 114": 2210,
      "## 11 85": 2211,
      "## 66 3": 2212,
      "## ddr error s detected and corrected": 2213,
      "## 109 236": 2214,
      "## info df s data node packet responder packet responder 0 for block b lk 7": 2215,
      "## 14 143": 2216,
      "## 15 198": 2217,
      "## 18897": 2218,
      "## 195 52": 2219,
      "## 91 159": 2220,
      "## 66 102": 2221,
      "## 65 203": 2222,
      "## 194 102": 2223,
      "## 90 239": 2224,
      "081110 212": 2225,
      "##s ev": 2226,
      "## link has been": 2227,
      "## severed": 2228,
      "apps ev": 2229,
      "## link has been severed": 2230,
      "## 107 98": 2231,
      "## 9 207": 2232,
      "## rm": 2233,
      "## 75 79": 2234,
      "## 1 warning": 2235,
      "1133455": 2236,
      "## 11 100": 2237,
      "## 87": 2238,
      "## 125 193": 2239,
      "## 43 147": 2240,
      "## 7 230": 2241,
      "##603": 2242,
      "## 71 146": 2243,
      "## 75 228": 2244,
      "## m 1 n 2 c j 17": 2245,
      "## 91 229": 2246,
      "## fff": 2247,
      "## 2005 11 09": 2248,
      "## gb": 2249,
      "## info df s data node packet responder packet responder 2 for block b lk 7": 2250,
      "## 202 18": 2251,
      "##990": 2252,
      "## 91 84": 2253,
      "##8561024": 2254,
      "## 188978561024": 2255,
      "## 111 80": 2256,
      "##948": 2257,
      "##045": 2258,
      "## 197 226": 2259,
      "## 123 195": 2260,
      "##123": 2261,
      "## 122 38": 2262,
      "## 106 214": 2263,
      "## 7 96": 2264,
      "## 71 68": 2265,
      "## 7 244": 2266,
      "## 201 204": 2267,
      "## 31 180": 2268,
      "## 194 147": 2269,
      "## 164": 2270,
      "## d cr": 2271,
      "## 126 255": 2272,
      "## 90 64": 2273,
      "## info df s data node packet responder packet responder 1 for block b lk 7": 2274,
      "## 185": 2275,
      "## c j 04 u 11 ras kernel info": 2276,
      "##908": 2277,
      "##596": 2278,
      "## 123 99": 2279,
      "081110 211": 2280,
      "##ied": 2281,
      "## bg": 2282,
      "##906": 2283,
      "## 107 242": 2284,
      "## 123 132": 2285,
      "## 127 243": 2286,
      "## 195 70": 2287,
      "##ission": 2288,
      "## 71 97": 2289,
      "1129": 2290,
      "## new": 2291,
      "## ran": 2292,
      "## rank": 2293,
      "##age no such file or directory": 2294,
      "## 191 50010": 2295,
      "## 10 176": 2296,
      "## instruction address 0 x 000": 2297,
      "## 14 224": 2298,
      "##586": 2299,
      "## 2005 11 03 r 66": 2300,
      "## 215 70": 2301,
      "##04 ed 8": 2302,
      "## instruction address 0 x 00004 ed 8": 2303,
      "## 15 67": 2304,
      "## 1 b": 2305,
      "## 2005 06 14 r 20": 2306,
      "##576": 2307,
      "081110 215": 2308,
      "## rank 0": 2309,
      "##153": 2310,
      "##122": 2311,
      "081109 212": 2312,
      "## 2005 06 14 r 25": 2313,
      "##e re": 2314,
      "##e 0 ": 2315,
      "##946": 2316,
      "##786": 2317,
      "## iff": 2318,
      "## progres": 2319,
      "##mbol": 2320,
      "## symbol": 2321,
      "## org apache had oop map red task attempt listener i mpl progres": 2322,
      "##s of task attempt attempt 144": 2323,
      "## org apache had oop map red task attempt listener i mpl progress of task attempt attempt 144": 2324,
      "## u 11 2005 06 25": 2325,
      "## 91 32": 2326,
      "## info df s data node data x ce iver receiving block b lk 2": 2327,
      "##152": 2328,
      "##uce ": 2329,
      "## 2005 06 14 r 24": 2330,
      "## of size 67108864 from 10 251 214": 2331,
      "11252": 2332,
      "## rank 0 symbol": 2333,
      "## 106 10": 2334,
      "## 2005 06 14 r 21": 2335,
      "## 50010 is added to b lk 9": 2336,
      "##602": 2337,
      "##orm": 2338,
      "##222": 2339,
      "## 2005 11 08": 2340,
      "081109 211": 2341,
      "##ormal": 2342,
      "## u 01 2005 06 14 11": 2343,
      "## u 11 2005 06 14 11": 2344,
      "##353": 2345,
      "##id": 2346,
      "##578": 2347,
      "## mp i": 2348,
      "081110 213": 2349,
      "## info df s data node packet responder received block b lk 2": 2350,
      "## 1 normal": 2351,
      "## u 11 2005 06 14 09": 2352,
      "##00000000": 2353,
      "## bg l": 2354,
      "##842": 2355,
      "## 165": 2356,
      "081111 025": 2357,
      "## u 01 2005 06 14 09": 2358,
      "081110 011": 2359,
      "081111 0447": 2360,
      "## of size 67108864 from 10 251 203": 2361,
      "##047": 2362,
      "## spasm": 2363,
      "## of size 67108864 from 10 251 39": 2364,
      "## contain": 2365,
      "081109 235": 2366,
      "## r 02 m 1 n 0 c j 12 u 11 2005 06": 2367,
      "081111 084": 2368,
      "##905": 2369,
      "## 187": 2370,
      "##598": 2371,
      "## 135": 2372,
      "##252": 2373,
      "##342": 2374,
      "##112": 2375,
      "081110 225": 2376,
      "##ini": 2377,
      "## is 0": 2378,
      "081111 074": 2379,
      "## login": 2380,
      "##997": 2381,
      "081111 055": 2382,
      "## ch dir": 2383,
      "## ras app fatal cio d login": 2384,
      "## ras app fatal cio d login ch dir": 2385,
      "## ce 1": 2386,
      "## u 11 2005 06 05": 2387,
      "## den": 2388,
      "##ermission": 2389,
      "## denied": 2390,
      "##ermission denied": 2391,
      "## on rank 0 symbol": 2392,
      "## 107 50": 2393,
      "081110 1036": 2394,
      "## y": 2395,
      "081110 214": 2396,
      "##103": 2397,
      "##233": 2398,
      "## info df s data node data x ce iver receiving block b lk 9": 2399,
      "##p d": 2400,
      "081111 035": 2401,
      "##046": 2402,
      "##333": 2403,
      "2015 10 19": 2404,
      "## reset": 2405,
      "##7 gig e temperature": 2406,
      "## gig e 7 gig e temperature": 2407,
      "##203": 2408,
      "112014": 2409,
      "## 26 09": 2410,
      "## is added to invalid set of 10 251 214": 2411,
      "## run": 2412,
      "## cod": 2413,
      "081111 080": 2414,
      "##253": 2415,
      "## u 01 ras kernel info generating core 4": 2416,
      "## 167": 2417,
      "##853": 2418,
      "##102": 2419,
      "## info df s data node packet responder packet responder 0 for block b lk 8": 2420,
      "##641": 2421,
      "## dc": 2422,
      "## is added to invalid set of 10 251 203": 2423,
      "081111 030": 2424,
      "081111 050": 2425,
      "##803": 2426,
      "## vp d": 2427,
      "##995": 2428,
      "##843": 2429,
      "081111 024": 2430,
      "## home ": 2431,
      "## re c": 2432,
      "##302": 2433,
      "## 0 part 000": 2434,
      "## r 76": 2435,
      "##age permission denied": 2436,
      "081111 070": 2437,
      "## 184": 2438,
      "## 0 0 0 0": 2439,
      "##141": 2440,
      "081109 234": 2441,
      "## info df s data node packet responder received block b lk 9": 2442,
      "081110 224": 2443,
      "## 30 08": 2444,
      "## info df s data node packet responder packet responder 1 for block b lk 8": 2445,
      "081111 064": 2446,
      "## info df s data node packet responder packet responder 2 for block b lk 8": 2447,
      "##es": 2448,
      "## failed no such file or directory": 2449,
      "## is added to invalid set of 10 251 39": 2450,
      "##low": 2451,
      "##443": 2452,
      "##651": 2453,
      "112522": 2454,
      "##232": 2455,
      "## pel": 2456,
      "## pel ce 1": 2457,
      "081109 210": 2458,
      "## 10 07": 2459,
      "##202": 2460,
      "081111 034": 2461,
      "##uster filesystem": 2462,
      "## mb": 2463,
      "##048": 2464,
      "## al": 2465,
      "## 104": 2466,
      "## 04 07": 2467,
      "##yp": 2468,
      "##131": 2469,
      "##852": 2470,
      "081111 054": 2471,
      "081111 0654": 2472,
      "## info main org apache had oop map red": 2473,
      "## 95": 2474,
      "## 76": 2475,
      "## 2005 08 02": 2476,
      "##802": 2477,
      "##m d": 2478,
      "##352": 2479,
      "##407": 2480,
      "081110 2105": 2481,
      "##243": 2482,
      "## cm d": 2483,
      "081110 230": 2484,
      "## u 11 2005 07 09 11": 2485,
      "081109 213": 2486,
      "## id": 2487,
      "## u 11 2005 07 23 17": 2488,
      "##ok": 2489,
      "##201": 2490,
      "## 154": 2491,
      "##405": 2492,
      "##242": 2493,
      "081110 104": 2494,
      "##e check": 2495,
      "## machine check": 2496,
      "081109 22": 2497,
      "## vol": 2498,
      "##332": 2499,
      "## info df s data node packet responder packet responder 2 for block b lk 5": 2500,
      "##442": 2501,
      "## no 0 ": 2502,
      "##err no 0 ": 2503,
      "## received signal": 2504,
      "##err no 0 address 0 x 000": 2505,
      "## 15 cod": 2506,
      "##e 0 err no 0 address 0 x 000": 2507,
      "## received signal 15 cod": 2508,
      "## received signal 15 code 0 err no 0 address 0 x 000": 2509,
      "1133448": 2510,
      "## message ": 2511,
      "##v 2": 2512,
      "## 217": 2513,
      "##383": 2514,
      "## u 01 2005 07 23 17": 2515,
      "## 10 34": 2516,
      "## info df s data node packet responder packet responder 2 for block b lk 4": 2517,
      "## info df s data node packet responder packet responder 1 for block b lk 5": 2518,
      "081111 060": 2519,
      "## u 01 2005 07 09 11": 2520,
      "## 2005 06 06": 2521,
      "## 1 t": 2522,
      "##341": 2523,
      "## 244": 2524,
      "##gist": 2525,
      "## u 01 2005 08 26 12": 2526,
      "##gister": 2527,
      "##151": 2528,
      "## ib": 2529,
      "## ibm": 2530,
      "## 2005 07 24": 2531,
      "## iar 0 x 00544 ea": 2532,
      "## iar 0 x 00544 eb": 2533,
      "## iar 0 x 00544 ee 0": 2534,
      "## iar 0 x 00544 ef 0": 2535,
      "## u 11 ras kernel info generating core 4": 2536,
      "##601": 2537,
      "## hpc": 2538,
      "## hpc c": 2539,
      "## map task": 2540,
      "## info df s data node packet responder packet responder 0 for block b lk 4": 2541,
      "## u 11 2005 08 26 12": 2542,
      "## 188978561024 quorum c nx manager": 2543,
      "## info df s data node packet responder packet responder 1 for block b lk 6": 2544,
      "## 212": 2545,
      "## ben": 2546,
      "apps ev 11": 2547,
      "## out": 2548,
      "## info df s data node packet responder packet responder 0 for block b lk 5": 2549,
      "## 219": 2550,
      "2015 10 18": 2551,
      "## info df s data node packet responder packet responder 2 for block b lk 6": 2552,
      "## total of": 2553,
      "## 190": 2554,
      "##form": 2555,
      "## mini": 2556,
      "## i j 18 u 01 2005 11": 2557,
      "## perform": 2558,
      "## re cv": 2559,
      "## re cv worker": 2560,
      "## info df s data node packet responder packet responder 0 for block b lk 6": 2561,
      "## u 11 2005 07 09 21": 2562,
      "## 2005 08 22": 2563,
      "## exception": 2564,
      "##003": 2565,
      "## server": 2566,
      "112508": 2567,
      "##814": 2568,
      "##351": 2569,
      "## second": 2570,
      "## 13 17": 2571,
      "## processor": 2572,
      "## 254": 2573,
      "## iar 0 x 00544 ea 8 dear 0 x 01": 2574,
      "## iar 0 x 00544 eb 8 dear 0 x 01": 2575,
      "## iar 0 x 00544 ee 0 dear 0 x 01": 2576,
      "## iar 0 x 00544 ef 0 dear 0 x 01": 2577,
      "## 2005 08 04": 2578,
      "112225": 2579,
      "## 269": 2580,
      "## info df s data node packet responder packet responder 1 for block b lk 4": 2581,
      "## requ": 2582,
      "## r 26 m 0 n 0": 2583,
      "## 169": 2584,
      "## 108": 2585,
      "## r 55": 2586,
      "##002": 2587,
      "##406": 2588,
      "## u 01 ras kernel info 1146800 double hummer alignment exceptions": 2589,
      "## 2005 12 06": 2590,
      "## u 01 2005 07 09 21": 2591,
      "##2 r 000": 2592,
      "## 344": 2593,
      "## 265": 2594,
      "## cluster filesystem": 2595,
      "## redu": 2596,
      "## 2005 06 13": 2597,
      "## c j 06 u 11 ras kernel info": 2598,
      "##6210": 2599,
      "## 264": 2600,
      "081111 104": 2601,
      "##121": 2602,
      "## mini ben": 2603,
      "## 19 16": 2604,
      "## received signal 15 code 0 err no 0 address 0 x 000001": 2605,
      "## u 01 2005 10": 2606,
      "## dd cm d": 2607,
      "## info df s fs name system block name system allocate block user root rand txt 5 temporary task 200811101024 00": 2608,
      "## info df s fs name system block name system allocate block user root rand txt 5 temporary task 200811101024 0012": 2609,
      "## events": 2610,
      "## le": 2611,
      "## info df s fs name system block name system allocate block user root rand txt temporary task 200811092030 000": 2612,
      "## info df s fs name system block name system allocate block user root rand txt temporary task 200811092030 0003": 2613,
      "## size 35": 2614,
      "## 2005 11 04 r 63 m 0 n": 2615,
      "## 267": 2616,
      "## info df s fs name system block name system allocate block user root rand txt 4": 2617,
      "## temporary task 200811101024 0010": 2618,
      "## info df s fs name system block name system allocate block user root rand txt 4 temporary task 200811101024 0010": 2619,
      "## dear 02 f": 2620,
      "##t 9": 2621,
      "## request": 2622,
      "##3 r 000": 2623,
      "##oun": 2624,
      "## of size 35": 2625,
      "##221": 2626,
      "## 6 temporary task 200811101024 00": 2627,
      "## info df s fs name system block name system allocate block user root rand 6 temporary task 200811101024 00": 2628,
      "## info df s fs name system block name system allocate block user root rand 6 temporary task 200811101024 0013": 2629,
      "##ptor": 2630,
      "##uce v 2": 2631,
      "## 123 33": 2632,
      "## info df s fs name system block name system allocate block user root rand temporary task 200811092030 000": 2633,
      "## info df s fs name system block name system allocate block user root rand temporary task 200811092030 0001": 2634,
      "## 4 temporary task 200811101024 000": 2635,
      "## info df s fs name system block name system allocate block user root rand 4 temporary task 200811101024 000": 2636,
      "## info df s fs name system block name system allocate block user root rand 4 temporary task 200811101024 0009": 2637,
      "11215": 2638,
      "## info df s fs name system block name system allocate block user root rand 5 temporary task 200811101024 00": 2639,
      "## info df s fs name system block name system allocate block user root rand 5 temporary task 200811101024 0011": 2640,
      "##uce v 2 app": 2641,
      "## u 01 ras kernel info 10": 2642,
      "## info df s fs name system block name system allocate block user root rand txt 3 temporary task 200811101024 000": 2643,
      "## info df s fs name system block name system allocate block user root rand txt 3 temporary task 200811101024 0007": 2644,
      "##631": 2645,
      "## 8 temporary task 200811101024 00": 2646,
      "## info df s fs name system block name system allocate block user root rand 8 temporary task 200811101024 00": 2647,
      "## info df s fs name system block name system allocate block user root rand 8 temporary task 200811101024 0015": 2648,
      "## temporary task 200811101024 0016": 2649,
      "## info df s fs name system block name system allocate block user root rand txt 9": 2650,
      "## info df s fs name system block name system allocate block user root rand txt 9 temporary task 200811101024 0016": 2651,
      "##621": 2652,
      "## 18 10": 2653,
      "## info df s fs name system block name system allocate block user root rand 3 temporary task 200811101024 000": 2654,
      "081110 114": 2655,
      "## info df s fs name system block name system allocate block user root rand 3 temporary task 200811101024 0005": 2656,
      "##996": 2657,
      "##495": 2658,
      "## 124": 2659,
      "## info df s fs name system block name system allocate block user root rand temporary task 200811101024 000": 2660,
      "## info df s fs name system block name system allocate block user root rand temporary task 200811101024 0001": 2661,
      "112149": 2662,
      "## info df s fs name system block name system allocate block user root rand txt 2 temporary task 200811101024 000": 2663,
      "## info df s fs name system block name system allocate block user root rand txt 2 temporary task 200811101024 0002": 2664,
      "## info df s fs name system block name system allocate block user root rand 7": 2665,
      "## temporary task 200811101024 0014": 2666,
      "## info df s fs name system block name system allocate block user root rand 7 temporary task 200811101024 0014": 2667,
      "081111 0759": 2668,
      "112214": 2669,
      "## null discovery info": 2670,
      "##main": 2671,
      "## 42 16": 2672,
      "## 234": 2673,
      "##101": 2674,
      "##ance": 2675,
      "##ount": 2676,
      "081109 204": 2677,
      "## performance": 2678,
      "##497": 2679,
      "## r 37 m 1 nc c j 02 u 11 ras kernel info instruction cache parity error corrected": 2680,
      "## 78": 2681,
      "##vail": 2682,
      "## is not ": 2683,
      "##321": 2684,
      "1135": 2685,
      "## c j 07 u 11 ras kernel info": 2686,
      "112213": 2687,
      "##ug": 2688,
      "## is ok": 2689,
      "##801": 2690,
      "##998": 2691,
      "11214": 2692,
      "##331": 2693,
      "## u 11 ras kernel info iar 001065": 2694,
      "##476": 2695,
      "## performance mini ben": 2696,
      "## tag": 2697,
      "##181": 2698,
      "## p good": 2699,
      "## error latch": 2700,
      "## j tag": 2701,
      "## gb 1": 2702,
      "## c j 08 u 11 ras kernel info": 2703,
      "##111": 2704,
      "## 26 131": 2705,
      "##851": 2706,
      "## u 01 2005 07 15 23": 2707,
      "## 10 10 34": 2708,
      "##841": 2709,
      "##251": 2710,
      "112190": 2711,
      "## temperature": 2712,
      "## 5 vol": 2713,
      "##t rail": 2714,
      "## mp good": 2715,
      "## j tag reset": 2716,
      "## 5 volt rail": 2717,
      "## 260": 2718,
      "##408": 2719,
      "## info df s data node packet responder packet responder 0 for block b lk 3": 2720,
      "## 42 191": 2721,
      "## 71 240": 2722,
      "##active": 2723,
      "##und": 2724,
      "## 71 16": 2725,
      "## u 11 2005 07 15 23": 2726,
      "## 111 209": 2727,
      "## 74 134": 2728,
      "## is asserted": 2729,
      "kern dtl b 111854": 2730,
      "## 215 192": 2731,
      "##301": 2732,
      "##4412": 2733,
      "## 90 81": 2734,
      "## bg lio": 2735,
      "##ount failed": 2736,
      "## error latch is ": 2737,
      "##s s detected and corrected": 2738,
      "## 6 191": 2739,
      "## r 16 m 1 n 2 c j 17": 2740,
      "## ddr errors s detected and corrected": 2741,
      "## ddr errors s detected and corrected on rank 0 symbol": 2742,
      "## 5 volt rail is ok": 2743,
      "## 110 196": 2744,
      "##eg": 2745,
      "## j tag reset is asserted": 2746,
      "## 24 18": 2747,
      "## r 74": 2748,
      "## 199 225": 2749,
      "## 37 240": 2750,
      "## info df s data node packet responder packet responder 1 for block b lk 3": 2751,
      "## 74 192": 2752,
      "##692": 2753,
      "## 65 237": 2754,
      "## 107 196": 2755,
      "## pel ce 1 hpc c": 2756,
      "## pel ce 1 hpc c ibm": 2757,
      "081110 014": 2758,
      "## u 01 2005 07 13 20": 2759,
      "081110 010": 2760,
      "## a 0": 2761,
      "## op": 2762,
      "## 30 101": 2763,
      "## r 53": 2764,
      "## 43 192": 2765,
      "## m 001": 2766,
      "## 127 191": 2767,
      "## 5 161": 2768,
      "##231": 2769,
      "## info df s data node packet responder packet responder 2 for block b lk 3": 2770,
      "## 30 134": 2771,
      "## temporary task 200811092030 0002 r 000": 2772,
      "## info df s fs name system block name system allocate block user root sort rand temporary task 200811092030 0002 r 000": 2773,
      "## 19 227": 2774,
      "## c j 02 u 11 ras kernel info": 2775,
      "## 66 192": 2776,
      "## d cr 0 x": 2777,
      "081110 150": 2778,
      "## 5 237": 2779,
      "## 125 237": 2780,
      "## dear 0246": 2781,
      "## r 37 m 1 nc c j 02 u 11 2005 12": 2782,
      "## 67 225": 2783,
      "## 14 196": 2784,
      "##693": 2785,
      "## s d cr 0 x": 2786,
      "## 215 16": 2787,
      "## r 44": 2788,
      "## u 01 ras kernel info 8 floating point alignment exceptions": 2789,
      "##673": 2790,
      "## u 01 ras kernel info iar 001065": 2791,
      "## 17 225": 2792,
      "##742": 2793,
      "## 15 101": 2794,
      "## 30 09": 2795,
      "081110 223": 2796,
      "## c j 13 u 11 ras kernel info": 2797,
      "## 15 240": 2798,
      "## c j 15 u 11 ras kernel info": 2799,
      "## 107 227": 2800,
      "##282": 2801,
      "## command": 2802,
      "## 2 temporary task 200811101024 0003 r 000": 2803,
      "## info df s fs name system block name system allocate block user root sort rand 2 temporary task 200811101024 0003 r 000": 2804,
      "## 13 240": 2805,
      "## read": 2806,
      "## 109 209": 2807,
      "## r 71": 2808,
      "## 19 info df s fs data set deleting block b lk 9": 2809,
      "## 126 227": 2810,
      "## 0 d": 2811,
      "## 197 161": 2812,
      "##701": 2813,
      "## home s": 2814,
      "## 202 181": 2815,
      "## 2005 07 10": 2816,
      "## c j 03 u 11 ras kernel info": 2817,
      "## 74 227": 2818,
      "## c j 16 u 11 ras kernel info": 2819,
      "## 15 floating point alignment exceptions": 2820,
      "## 50010 served block b lk 7": 2821,
      "## 90 134": 2822,
      "## 25 237": 2823,
      "## r 77": 2824,
      "11314": 2825,
      "081111 033": 2826,
      "## 202 209": 2827,
      "## c j 12 u 11 ras kernel info": 2828,
      "## message on": 2829,
      "## r 56": 2830,
      "##752": 2831,
      "## c j 09 u 11 ras kernel info": 2832,
      "## 139": 2833,
      "## 202 134": 2834,
      "112100": 2835,
      "## 1 ": 2836,
      "## 259": 2837,
      "## file m nt had oop df s data current b lk": 2838,
      "## c j 11 u 11 ras kernel info": 2839,
      "##ang": 2840,
      "## u 11 2005 07 13 20": 2841,
      "##found": 2842,
      "##241": 2843,
      "11219": 2844,
      "## c j 05 u 11 ras kernel info": 2845,
      "##672": 2846,
      "kern m n": 2847,
      "## 2005 06 07": 2848,
      "## seconds": 2849,
      "##173": 2850,
      "1118770": 2851,
      "## 137": 2852,
      "## r 02 m 0 n 4": 2853,
      "##8749": 2854,
      "## r 45": 2855,
      "## 28 info df s fs name system block name system add stored block block map updated 10 250": 2856,
      "## info main org apache had oop map red map task": 2857,
      "##441": 2858,
      "## attempt 144": 2859,
      "##etch": 2860,
      "## 249": 2861,
      "## 101 50010": 2862,
      "## 30 info df s fs name system block name system add stored block block map updated 10 250": 2863,
      "##etr": 2864,
      "081111 1105": 2865,
      "## 198 196": 2866,
      "## 179 50010": 2867,
      "## 2005 07 18": 2868,
      "## c j 10 u 11 ras kernel info": 2869,
      "## r 57": 2870,
      "## 2005 12 09": 2871,
      "## u 11 ras kernel fatal data storage interrupt": 2872,
      "## r 51": 2873,
      "## r 47": 2874,
      "##283": 2875,
      "081109 233": 2876,
      "## size 2": 2877,
      "081111 045": 2878,
      "## b gl apps sw l": 2879,
      "## 26 info df s fs name system block name system add stored block block map updated 10 250": 2880,
      "##00002": 2881,
      "## 33 info df s fs name system block name system add stored block block map updated 10 250": 2882,
      "## 50010 served block b lk 8": 2883,
      "##076": 2884,
      "081110 020": 2885,
      "112125": 2886,
      "## mount failed": 2887,
      "## lust": 2888,
      "##re mount failed": 2889,
      "kern m nt f": 2890,
      "## lustre mount failed": 2891,
      "## lustre mount failed bg lio": 2892,
      "## 161 50010": 2893,
      "## 35 info df s fs name system block name system add stored block block map updated 10 250": 2894,
      "## m 0019": 2895,
      "##743": 2896,
      "## u 01 ras kernel fatal data storage interrupt": 2897,
      "##183": 2898,
      "##976": 2899,
      "## 0 is 0": 2900,
      "112257": 2901,
      "##393": 2902,
      "## 31 info df s fs name system block name system add stored block block map updated 10 250": 2903,
      "## 29 info df s fs name system block name system add stored block block map updated 10 250": 2904,
      "##e p": 2905,
      "##plet": 2906,
      "##abl": 2907,
      "## 32 info df s fs name system block name system add stored block block map updated 10 250": 2908,
      "## c j 17 u 11 ras kernel info": 2909,
      "##163": 2910,
      "## of size 2": 2911,
      "## complet": 2912,
      "## u 11 2005 07 07": 2913,
      "## 230": 2914,
      "## u 01 2005 07 07": 2915,
      "##293": 2916,
      "## i j 18 u 01 ras kernel info cio d generated": 2917,
      "## r 46": 2918,
      "## c j 14 u 11 ras kernel info": 2919,
      "## 27 info df s fs name system block name system add stored block block map updated 10 250": 2920,
      "## 34 info df s fs name system block name system add stored block block map updated 10 250": 2921,
      "##e register": 2922,
      "## i j 18 u 11 ras kernel info cio d generated": 2923,
      "## home s pel ce 1 hpc c ibm": 2924,
      "081110 145": 2925,
      "## c j 09 u 01 ras kernel info": 2926,
      "## 64 k": 2927,
      "## i j 18 u 11 2005 09": 2928,
      "## locator": 2929,
      "## 12 05": 2930,
      "##262": 2931,
      "## dear 02494": 2932,
      "## 03 20": 2933,
      "## u 11 ras kernel info generating core 5": 2934,
      "##553": 2935,
      "##273": 2936,
      "## 250": 2937,
      "## 00000000": 2938,
      "##263": 2939,
      "##753": 2940,
      "## u 01 2005 08": 2941,
      "## f 2": 2942,
      "## 09 16": 2943,
      "## r 70": 2944,
      "## container": 2945,
      "081110 2104": 2946,
      "## c j 07 u 01 ras kernel info": 2947,
      "081111 095": 2948,
      "## ur": 2949,
      "081110 120": 2950,
      "## u 01 ras kernel info generating core 5": 2951,
      "## size ": 2952,
      "##172": 2953,
      "##ee": 2954,
      "## 170": 2955,
      "## on cio stream socket to 172 16 96 116": 2956,
      "##893": 2957,
      "##292": 2958,
      "##496": 2959,
      "112159": 2960,
      "## ras app fatal cio d error reading message prefix on cio stream socket to 172 16 96 116": 2961,
      "##fa": 2962,
      "## m s": 2963,
      "##162": 2964,
      "##ed by": 2965,
      "## af": 2966,
      "## u 11 2005 07 17 04": 2967,
      "##vailable": 2968,
      "## of size ": 2969,
      "11200": 2970,
      "## urg": 2971,
      "##272": 2972,
      "## over": 2973,
      "## home g": 2974,
      "##ator": 2975,
      "##703": 2976,
      "## interrup": 2977,
      "## instruction 0": 2978,
      "##702": 2979,
      "113114": 2980,
      "## interrupt ": 2981,
      "## r 41": 2982,
      "## 29 18": 2983,
      "##192": 2984,
      "##read": 2985,
      "##373": 2986,
      "##193": 2987,
      "## i j 18 u 01 2005 09": 2988,
      "##ill": 2989,
      "## at 0 x 0": 2990,
      "##ait": 2991,
      "081110 1034": 2992,
      "## interconnect 0 n 00": 2993,
      "##392": 2994,
      "##e f": 2995,
      "081110 105": 2996,
      "## c j 15 u 01 ras kernel info": 2997,
      "##883": 2998,
      "## u 01 2005 07 17 04": 2999,
      "## 50010 served block b lk 4": 3000,
      "## s a": 3001,
      "##ra s a": 3002,
      "## m sra s a": 3003,
      "## unix": 3004,
      "## 50010 served block b lk 5": 3005,
      "##2500": 3006,
      "##543": 3007,
      "## u 01 2005 07 20 16": 3008,
      "## reduce": 3009,
      "##6228": 3010,
      "## h w": 3011,
      "## unix h w": 3012,
      "##882": 3013,
      "##873": 3014,
      "##503": 3015,
      "## u 11 2005 07 20 16": 3016,
      "## 29 17": 3017,
      "##372": 3018,
      "081110 222": 3019,
      "## to 10 251 203": 3020,
      "## interconnect 1 n 01": 3021,
      "##363": 3022,
      "## u 11 2005 08 28 02": 3023,
      "1131060": 3024,
      "1124": 3025,
      "## to 10 251 214": 3026,
      "## 2005 09 20 18": 3027,
      "## not": 3028,
      "## 50010 served block b lk 6": 3029,
      "## nm": 3030,
      "## scal": 3031,
      "##t j": 3032,
      "081111 105": 3033,
      "## u 11 ras kernel info iar 00106": 3034,
      "## u 01 2005 08 28 02": 3035,
      "## 2005 08 28 03": 3036,
      "## e c": 3037,
      "## 0 v": 3038,
      "081110 2106": 3039,
      "## raptor": 3040,
      "##872": 3041,
      "##out": 3042,
      "## 145": 3043,
      "## byt": 3044,
      "## c j 10 u 01 ras kernel info": 3045,
      "##1445": 3046,
      "081109 205": 3047,
      "## m 0017": 3048,
      "11315": 3049,
      "## slo": 3050,
      "1133454": 3051,
      "081110 115": 3052,
      "## in processor": 3053,
      "## card slo": 3054,
      "## e cid": 3055,
      "## in processor card slo": 3056,
      "## c j 04 u 01 ras kernel info": 3057,
      "## 2005 07 12": 3058,
      "##502": 3059,
      "##682": 3060,
      "## 270": 3061,
      "## 128 core files for program": 3062,
      "##892": 3063,
      "## invalid or missing program image no such file or directory": 3064,
      "112130": 3065,
      "##ning": 3066,
      "##498": 3067,
      "## u 01 ras kernel info iar 00106": 3068,
      "## running": 3069,
      "kern m nt f 11": 3070,
      "## 2005 08 09": 3071,
      "## 04 02": 3072,
      "112044": 3073,
      "## ffff f": 3074,
      "##14 a": 3075,
      "## 140": 3076,
      "## m sra s a 41": 3077,
      "## rts ": 3078,
      "##362": 3079,
      "##542": 3080,
      "## u 11 2005 11 03 14": 3081,
      "##662": 3082,
      "## 50010 got exception while serving b lk 7": 3083,
      "##ction start": 3084,
      "## c j 03 u 01 ras kernel info": 3085,
      "## 119": 3086,
      "081110 015": 3087,
      "## home s pel ce 1 hpc c ibm urg": 3088,
      "081111 083": 3089,
      "## r 40": 3090,
      "## bc": 3091,
      "## iar 0014 a": 3092,
      "##382": 3093,
      "## 64 core files for program": 3094,
      "## 50010 got exception while serving b lk 8": 3095,
      "##6210 dear 0244 c": 3096,
      "## c j 14 u 01 ras kernel info": 3097,
      "##093": 3098,
      "## u 01 2005 11 03 14": 3099,
      "## 205": 3100,
      "##2525": 3101,
      "##092": 3102,
      "## c j 13 u 11 ras kernel info generating core": 3103,
      "## to 10 251 39": 3104,
      "## in processor card slot j": 3105,
      "081111 082": 3106,
      "081111 072": 3107,
      "##663": 3108,
      "## test": 3109,
      "## typ": 3110,
      "## c j 06 u 01 ras kernel info": 3111,
      "## c j 09 u 11 ras kernel info generating core": 3112,
      "## c j 08 u 01 ras kernel info": 3113,
      "## r 42": 3114,
      "## point p": 3115,
      "## point p gb 1": 3116,
      "## 247": 3117,
      "## 2005 12 26": 3118,
      "11272": 3119,
      "1125084": 3120,
      "## 120": 3121,
      "## c j 08 u 11 ras kernel info generating core": 3122,
      "## c j 08 u 01 ras kernel info generating core": 3123,
      "##182159": 3124,
      "## c j 09 u 01 ras kernel info generating core": 3125,
      "113106": 3126,
      "## c j 12 u 01 ras kernel info generating core": 3127,
      "##671": 3128,
      "## c j 03 u 01 ras kernel info generating core": 3129,
      "## c j 15 u 01 ras kernel info generating core": 3130,
      "081111 052": 3131,
      "##eed": 3132,
      "## c j 17 u 01 ras kernel info": 3133,
      "081111 092": 3134,
      "## c j 05 u 01 ras kernel info generating core": 3135,
      "## n 2": 3136,
      "##erman": 3137,
      "##erman n 2": 3138,
      "081111 053": 3139,
      "## c j 10 u 01 ras kernel info generating core": 3140,
      "## 1 ddr error s detected and corrected": 3141,
      "## u 01 2005 07 28 12": 3142,
      "## r 75": 3143,
      "##5182159": 3144,
      "##5182159119": 3145,
      "## c j 12 u 11 ras kernel info generating core": 3146,
      "## 157": 3147,
      "## r 43": 3148,
      "## action start": 3149,
      "## c j 07 u 01 ras kernel info generating core": 3150,
      "## 2005 11 21": 3151,
      "## c j 13 u 01 ras kernel info generating core": 3152,
      "## c j 04 u 11 ras kernel info generating core": 3153,
      "##391": 3154,
      "## thread": 3155,
      "## invalid or missing program image permission denied": 3156,
      "## c j 17 u 11 ras kernel info generating core": 3157,
      "081111 032": 3158,
      "## c j 06 u 11 ras kernel info generating core": 3159,
      "## c j 04 u 01 ras kernel info generating core": 3160,
      "## c j 05 u 11 ras kernel info generating core": 3161,
      "## c j 10 u 11 ras kernel info generating core": 3162,
      "## c j 06 u 01 ras kernel info generating core": 3163,
      "## c j 11 u 01 ras kernel info generating core": 3164,
      "## c j 16 u 11 ras kernel info generating core": 3165,
      "## 03 21": 3166,
      "## 257": 3167,
      "1131058": 3168,
      "081111 093": 3169,
      "##683": 3170,
      "##pr": 3171,
      "081111 073": 3172,
      "## c j 05 u 01 ras kernel info": 3173,
      "## c j 14 u 11 ras kernel info generating core": 3174,
      "## c j 16 u 01 ras kernel info generating core": 3175,
      "## u 11 2005 07 28 12": 3176,
      "## c j 07 u 11 ras kernel info generating core": 3177,
      "081111 063": 3178,
      "## c j 02 u 01 ras kernel info": 3179,
      "## c j 02 u 11 ras kernel info generating core": 3180,
      "## c j 14 u 01 ras kernel info generating core": 3181,
      "##orus": 3182,
      "## c j 03 u 11 ras kernel info generating core": 3183,
      "## time out": 3184,
      "## 3534": 3185,
      "## 50010 served block b lk 3": 3186,
      "## u 01 2005 09": 3187,
      "##fig": 3188,
      "## 256": 3189,
      "## c j 15 u 11 ras kernel info generating core": 3190,
      "## c j 16 u 01 ras kernel info": 3191,
      "## i j 18 u 01 2005 10": 3192,
      "## c j 11 u 11 ras kernel info generating core": 3193,
      "## c j 17 u 01 ras kernel info generating core": 3194,
      "## all": 3195,
      "## ass": 3196,
      "## 26 10": 3197,
      "##0912": 3198,
      "##751": 3199,
      "##bl": 3200,
      "## i j 18 u 11 2005 10": 3201,
      "## u 11 2005 09": 3202,
      "11188": 3203,
      "## u 11 2005 07 13 19": 3204,
      "## not m": 3205,
      "## 1 fe a": 3206,
      "## 2005 06 20": 3207,
      "## c j 12 u 01 ras kernel info": 3208,
      "## r 54": 3209,
      "## 2005 11 07": 3210,
      "## 045": 3211,
      "## fp": 3212,
      "## 1 fe a a": 3213,
      "## u 01 2005 07 13 19": 3214,
      "081111 043": 3215,
      "## c j 02 u 01 ras kernel info generating core": 3216,
      "##551": 3217,
      "## functional": 3218,
      "112095": 3219,
      "081111 062": 3220,
      "##e test": 3221,
      "1131059": 3222,
      "## program interrupt fp": 3223,
      "## 28 info df s fs name system block name system delete b lk 7": 3224,
      "## m 0012": 3225,
      "## b gl apps scal": 3226,
      "## b gl apps scale test": 3227,
      "##n a": 3228,
      "081111 042": 3229,
      "## 2005 06 16": 3230,
      "##040 double hummer alignment exceptions": 3231,
      "## r 50": 3232,
      "## c j 11 u 01 ras kernel info": 3233,
      "## e 8": 3234,
      "## r 000000": 3235,
      "##741": 3236,
      "## 9000": 3237,
      "##ob": 3238,
      "## m 0015": 3239,
      "## 19 info df s fs data set deleting block b lk 2": 3240,
      "## u 01 ras kernel fatal instruction address 0 x 00004 ed 8": 3241,
      "## not ": 3242,
      "## ac": 3243,
      "1134": 3244,
      "## aft": 3245,
      "## 50010 got exception while serving b lk 4": 3246,
      "## 50010 got exception while serving b lk 6": 3247,
      "## u 01 2005 07 26 19": 3248,
      "## c j 03 u 01 ras kernel info generating core ": 3249,
      "## m 0013": 3250,
      "##figur": 3251,
      "## 2005 06 11 r 30 m 0 n 9 c j 16 u 01 2005 06 11 22": 3252,
      "## 344040 double hummer alignment exceptions": 3253,
      "## c j 13 u 01 ras kernel info": 3254,
      "## c j 14 u 01 ras kernel info generating core ": 3255,
      "kern dtl b 111855": 3256,
      "## 2005 06 11 r 30 m 0 n 9 c j 16 u 01 2005 06 11 18": 3257,
      "## 2005 06 11 r 30 m 0 n 9 c j 16 u 01 2005 06 11 21": 3258,
      "##821": 3259,
      "## 50010 got exception while serving b lk 5": 3260,
      "## ind": 3261,
      "081111 0446": 3262,
      "## index": 3263,
      "##6200": 3264,
      "## c j 15 u 11 ras kernel info generating core ": 3265,
      "## c j 15 u 01 ras kernel info generating core ": 3266,
      "##her": 3267,
      "112009": 3268,
      "## c j 10 u 01 ras kernel info generating core ": 3269,
      "## 3479": 3270,
      "## c j 11 u 01 ras kernel info generating core ": 3271,
      "## u 11 2005 07 26 19": 3272,
      "## c j 14 u 11 ras kernel info generating core ": 3273,
      "## interfa": 3274,
      "1122165": 3275,
      "## c j 11 u 11 ras kernel info generating core ": 3276,
      "## 28 info df s fs name system block name system delete b lk 8": 3277,
      "## 2005 11 08 r 62 m 0 n": 3278,
      "## 2005 11 03 16": 3279,
      "## m 0011": 3280,
      "## null discovery error": 3281,
      "## 0 part 011": 3282,
      "## 0 part 009": 3283,
      "##ia": 3284,
      "## c j 07 u 11 ras kernel info generating core ": 3285,
      "## c j 02 u 11 ras kernel info generating core ": 3286,
      "## n iff": 3287,
      "## on network": 3288,
      "## 1 n iff": 3289,
      "## net n iff": 3290,
      "## connection on network": 3291,
      "## network connection on network": 3292,
      "## unix h w net n iff": 3293,
      "## 0 via": 3294,
      "## 1 n iff node": 3295,
      "## 0 via interfa": 3296,
      "## r 62 m 0 na": 3297,
      "## c j 07 u 01 ras kernel info generating core ": 3298,
      "## c j 06 u 01 ras kernel info generating core ": 3299,
      "## tre": 3300,
      "##ason": 3301,
      "## reason": 3302,
      "## c j 06 u 11 ras kernel info generating core ": 3303,
      "## u 01 ras kernel info iar 001061": 3304,
      "## terminated": 3305,
      "##kernel terminated": 3306,
      "## for reason": 3307,
      "kern term": 3308,
      "## rts kernel terminated": 3309,
      "## for reason 100": 3310,
      "## rts kernel terminated for reason 100": 3311,
      "## u 01 2005 11 04 09": 3312,
      "##831": 3313,
      "## b lk 64": 3314,
      "## 2005 06 11 r 30 m 0 n 9 c j 16 u 01 2005 06 11 20": 3315,
      "## 811": 3316,
      "## 233": 3317,
      "## 2354412": 3318,
      "## 2354412 floating point alignment exceptions": 3319,
      "##6228 dear 0244 c": 3320,
      "## u 11 ras kernel fatal instruction address 0 x 00004 ed 8": 3321,
      "## c j 10 u 11 ras kernel info generating core ": 3322,
      "081110 2206": 3323,
      "## kernel": 3324,
      "## 10000": 3325,
      "## found": 3326,
      "## c j 03 u 11 ras kernel info generating core ": 3327,
      "##691": 3328,
      "## mask 0 x 02": 3329,
      "## u 01 2005 11 08": 3330,
      "## c j 02 u 01 ras kernel info generating core ": 3331,
      "## cop": 3332,
      "## dear 0245 c": 3333,
      "## 1 c": 3334,
      "## ras app fatal cio d error reading message prefix aft": 3335,
      "## 2005 11 09 r 63 m 0 n": 3336,
      "##1707": 3337,
      "## de st 10 251 74": 3338,
      "## u 11 ras kernel info iar 001061": 3339,
      "## message on cio stream socket to 172 16 96 116": 3340,
      "## u 01 2005 07 01 16": 3341,
      "## u 11 2005 07 01 16": 3342,
      "## u 11 2005 11 04 09": 3343,
      "## c j 13 u 01 ras kernel info generating core ": 3344,
      "## 0 via interface ": 3345,
      "## 1 part": 3346,
      "## check": 3347,
      "##up": 3348,
      "## c j 05 u 11 ras kernel info generating core ": 3349,
      "1120969": 3350,
      "##531": 3351,
      "## 2005 08 12 23": 3352,
      "##ing to": 3353,
      "## all reduce": 3354,
      "## lim": 3355,
      "## 9 f": 3356,
      "11239": 3357,
      "##exec": 3358,
      "##541": 3359,
      "## u 11 2005 07 28 11": 3360,
      "##501": 3361,
      "##291": 3362,
      "## i j 18 u 01 ras app fatal cio d login ch dir": 3363,
      "## detected an a": 3364,
      "##vailable network connection on network": 3365,
      "## unix h w net n iff up": 3366,
      "## detected an available network connection on network": 3367,
      "##943": 3368,
      "## has detected an available network connection on network": 3369,
      "## i j 18 u 11 ras app fatal cio d login ch dir": 3370,
      "## c j 04 u 01 ras kernel info generating core ": 3371,
      "## b lk 67": 3372,
      "##371": 3373,
      "## 2005 06 14 r 02": 3374,
      "081111 0900": 3375,
      "## ea": 3376,
      "## c j 17 u 11 ras kernel info generating core ": 3377,
      "## c j 05 u 01 ras kernel info generating core ": 3378,
      "##261": 3379,
      "11339": 3380,
      "## c j 09 u 01 ras kernel info generating core ": 3381,
      "081110 17": 3382,
      "## r 62 m 0 n 9": 3383,
      "##at error": 3384,
      "## u 11 2005 11 08": 3385,
      "##mat error": 3386,
      "## format error": 3387,
      "##age exec": 3388,
      "##age exec format error": 3389,
      "## 2005 06 11 r 30 m 0 n 9 c j 16 u 01 2005 06 11 19": 3390,
      "## interconnect 0 n 00 switch modul": 3391,
      "## 0 b": 3392,
      "## interconnect 1 t": 3393,
      "##are ": 3394,
      "## integ": 3395,
      "## kernel detected": 3396,
      "## b lk 88": 3397,
      "## c j 08 u 01 ras kernel info generating core ": 3398,
      "## node card vp d": 3399,
      "## node card vp d check": 3400,
      "##281": 3401,
      "##521": 3402,
      "## u 01 2005 07 28 11": 3403,
      "##eration 0": 3404,
      "## u 01 2005 12": 3405,
      "## c j 04 u 11 ras kernel info generating core ": 3406,
      "##an sp": 3407,
      "##an speed": 3408,
      "1121311": 3409,
      "##e fan": 3410,
      "##881": 3411,
      "## 1 fan speed": 3412,
      "## interconnect 0 n 00 switch module fan": 3413,
      "## 1 fan speeds": 3414,
      "## 28 info df s fs name system block name system delete b lk 5": 3415,
      "## u 11 2005 07 09 12": 3416,
      "## retr": 3417,
      "##50627": 3418,
      "## c j 09 u 11 ras kernel info generating core ": 3419,
      "##793": 3420,
      "## c j 16 u 01 ras kernel info generating core ": 3421,
      "##elect": 3422,
      "##20 double hummer alignment exceptions": 3423,
      "## u 01 2005 07 09 12": 3424,
      "## 50010 got exception while serving b lk 3": 3425,
      "## c j 12 u 01 ras kernel info generating core ": 3426,
      "##942": 3427,
      "## domain": 3428,
      "## 2005 12 26 r 37 m 1 nc c j 02 u 11 2005 12": 3429,
      "##891": 3430,
      "## node status 10": 3431,
      "##792": 3432,
      "## m 0010": 3433,
      "## c j 08 u 11 ras kernel info generating core ": 3434,
      "## 0 part 010": 3435,
      "## iar 0014 a 150": 3436,
      "## 216": 3437,
      "## c j 13 u 11 ras kernel info generating core ": 3438,
      "## 3515": 3439,
      "## home german n 2": 3440,
      "## la": 3441,
      "## 148": 3442,
      "##903": 3443,
      "2015 10 17 21": 3444,
      "081110 04": 3445,
      "## c j 17 u 01 ras kernel info generating core ": 3446,
      "2015 10 18 18": 3447,
      "##508749": 3448,
      "##5087491445": 3449,
      "## 0 d 60": 3450,
      "## 3534 3": 3451,
      "## total of 1 ddr error s detected and corrected": 3452,
      "##161": 3453,
      "081109 214": 3454,
      "081111 0448": 3455,
      "## c j 12 u 11 ras kernel info generating core ": 3456,
      "## job": 3457,
      "##171": 3458,
      "## do not m": 3459,
      "##atch vp d": 3460,
      "## do not match vp d": 3461,
      "## do not match vp d e cid": 3462,
      "##721": 3463,
      "## 0810": 3464,
      "## m 0014": 3465,
      "## trans": 3466,
      "##81478": 3467,
      "## address": 3468,
      "## 117": 3469,
      "11230": 3470,
      "##5062781478": 3471,
      "## 2005 06 22": 3472,
      "## 50010 is added to b lk 64": 3473,
      "##5062781478 00": 3474,
      "112311": 3475,
      "## u 01 2005 06 26 09": 3476,
      "##s low": 3477,
      "## 00 0 d 60": 3478,
      "## 1 running": 3479,
      "##6 gig e temperature": 3480,
      "## gig e 6 gig e temperature": 3481,
      "## spasm mp i": 3482,
      "## leas": 3483,
      "##er lo": 3484,
      "## ras app fatal cio d error reading message prefix after lo": 3485,
      "1130": 3486,
      "## 685": 3487,
      "## 28 info df s fs name system block name system delete b lk 4": 3488,
      "## node in processor card slot j": 3489,
      "## c j 16 u 11 ras kernel info generating core ": 3490,
      "## 2005 08 03 16": 3491,
      "## caus": 3492,
      "## 243 0810": 3493,
      "## rts invalid or missing program image exec format error": 3494,
      "## mb 243 0810": 3495,
      "## performance mini ben mb 243 0810": 3496,
      "## b gl apps scale test performance mini ben mb 243 0810": 3497,
      "## all reduce rts invalid or missing program image exec format error": 3498,
      "## b gl apps scale test performance mini ben mb 243 0810 all reduce rts invalid or missing program image exec format error": 3499,
      "## b lk 34": 3500,
      "##org apache had oop": 3501,
      "##271": 3502,
      "## org apache had oop map reduce v 2 app": 3503,
      "081111 1106": 3504,
      "##091": 3505,
      "## e 0 mask 0 x": 3506,
      "## 2005 08 03 null": 3507,
      "##e ex": 3508,
      "## 28 info df s fs name system block name system delete b lk 6": 3509,
      "## g g": 3510,
      "## 156": 3511,
      "## 238": 3512,
      "## 2005 08 03 null 2005 08 03 16": 3513,
      "## 206": 3514,
      "## null discovery info node card vp d check": 3515,
      "##get": 3516,
      "## iar 003 a 9260": 3517,
      "##191": 3518,
      "## rts invalid or missing program image no such file or directory": 3519,
      "## request from": 3520,
      "## mi": 3521,
      "##e interrupt": 3522,
      "## 3552": 3523,
      "113158": 3524,
      "## switch module error 107": 3525,
      "## type ": 3526,
      "## ok": 3527,
      "##871": 3528,
      "## mask 0 x 04": 3529,
      "##772": 3530,
      "## cle": 3531,
      "##902": 3532,
      "## i j 18 u 11 2005 11 21": 3533,
      "## 679": 3534,
      "##ert": 3535,
      "##ent cop": 3536,
      "##is": 3537,
      "## b lk 29": 3538,
      "## 186": 3539,
      "## node temperature 11": 3540,
      "##head": 3541,
      "## 2005 06 09": 3542,
      "##ully": 3543,
      "1118772": 3544,
      "## kv": 3545,
      "## store interrupt": 3546,
      "## warn send worker": 3547,
      "## caused by": 3548,
      "## store interrupt caused by": 3549,
      "## is not": 3550,
      "## 188978561024 quorum c nx manager send worker": 3551,
      "## warn send worker 188978561024 quorum c nx manager send worker": 3552,
      "## 50010 is added to b lk 88": 3553,
      "## u 11 2005 07 09 13": 3554,
      "## 045 e": 3555,
      "## dear 045 e": 3556,
      "##unch": 3557,
      "## launch": 3558,
      "##6437": 3559,
      "##361": 3560,
      "## b gl apps ": 3561,
      "## null discovery warning": 3562,
      "##0943": 3563,
      "## 20 11": 3564,
      "## 158": 3565,
      "## info df s data node data x ce iver receiving block b lk 64": 3566,
      "## e 0": 3567,
      "## dear 0245 a": 3568,
      "##ed out": 3569,
      "## deb": 3570,
      "## 2005 06 23": 3571,
      "## 1 fan speeds 3552": 3572,
      "## wait": 3573,
      "## commun": 3574,
      "##ger": 3575,
      "111969": 3576,
      "##5087491445 000": 3577,
      "## u 01 2005 07 09 13": 3578,
      "## debug": 3579,
      "## completion": 3580,
      "##lan": 3581,
      "##d plan": 3582,
      "## 208": 3583,
      "1119715": 3584,
      "##681": 3585,
      "##381": 3586,
      "kern term 11": 3587,
      "## warn re cv worker": 3588,
      "## re cv worker 7": 3589,
      "## m 1 n 0 c j 12 u 11 2005 06 14": 3590,
      "11272435": 3591,
      "##ation for": 3592,
      "## 2005 06 14 r 02 m 1 n 0 c j 12 u 11 2005 06 14": 3593,
      "## 188978561024 quorum c nx manager re cv worker 7": 3594,
      "## warn re cv worker 188978561024 quorum c nx manager re cv worker 7": 3595,
      "## u 11 2005 06 30 08": 3596,
      "## limit ": 3597,
      "## info df s data node packet responder received block b lk 64": 3598,
      "## bro": 3599,
      "## node d": 3600,
      "## map completion": 3601,
      "## u 01 2005 06 30 08": 3602,
      "## 2005 12 26 r 37 m 1 nc c j 02 u 11 2005 12 26": 3603,
      "## 266": 3604,
      "## u 01 2005 07 01 04": 3605,
      "## file m nt had oop df s data current sub dir 34": 3606,
      "## u 11 2005 07 01 04": 3607,
      "##ent cop 64 k": 3608,
      "## mid plan": 3609,
      "## file m nt had oop df s data current sub dir 30": 3610,
      "1120934": 3611,
      "## file m nt had oop df s data current sub dir 2": 3612,
      "## mask 0 x 10": 3613,
      "## 2005 07 23 r 17": 3614,
      "## file m nt had oop df s data current sub dir 32": 3615,
      "## fetch": 3616,
      "## from 10 250": 3617,
      "## interrupt enable 0": 3618,
      "## u 11 2005 06 26 09": 3619,
      "## ip": 3620,
      "## r 73": 3621,
      "## 258": 3622,
      "## 3515 3479": 3623,
      "## 1 fan speeds 3552 3534 3": 3624,
      "## info df s data node data x ce iver receiving block b lk 88": 3625,
      "## u 01 2005 11 04 10": 3626,
      "## is added to invalid set of 10 251 74": 3627,
      "081111 0758": 3628,
      "## file m nt had oop df s data current sub dir 0": 3629,
      "## file m nt had oop df s data current sub dir 35": 3630,
      "## file m nt had oop df s data current sub dir 41": 3631,
      "## i j 18 u 01 2005 08": 3632,
      "## hk": 3633,
      "##431": 3634,
      "##1824": 3635,
      "## file m nt had oop df s data current sub dir 33": 3636,
      "##773": 3637,
      "## i j 18 u 11 2005 08": 3638,
      "## 50010 is added to b lk 67": 3639,
      "## m 0 nb c j 07": 3640,
      "##e se": 3641,
      "## i j 18 u 11 ras kernel info cio d received signal 15 code 0 err no 0 address 0 x 000001": 3642,
      "## u 11 2005 08": 3643,
      "113105": 3644,
      "##u hk": 3645,
      "## 39 64": 3646,
      "## 2005 07 23 r 15": 3647,
      "##fol": 3648,
      "## file m nt had oop df s data current sub dir 38": 3649,
      "## file m nt had oop df s data current sub dir 9": 3650,
      "## file m nt had oop df s data current sub dir 43": 3651,
      "## server filesystem": 3652,
      "## r 72": 3653,
      "## file m nt had oop df s data current sub dir 31": 3654,
      "## null discovery sever": 3655,
      "## map completion events": 3656,
      "## i j 18 u 01 ras kernel info cio d received signal 15 code 0 err no 0 address 0 x 000001": 3657,
      "##043": 3658,
      "## 07 16": 3659,
      "## request from attempt 144": 3660,
      "## file m nt had oop df s data current sub dir 3": 3661,
      "## file m nt had oop df s data current sub dir 10": 3662,
      "## max events": 3663,
      "## start index": 3664,
      "## org apache had oop map red task attempt listener i mpl map completion events": 3665,
      "## max events 10000": 3666,
      "## org apache had oop map red task attempt listener i mpl map completion events request from attempt 144": 3667,
      "## file m nt had oop df s data current sub dir 40": 3668,
      "##3760": 3669,
      "112096": 3670,
      "## temperatur": 3671,
      "## 28 info df s fs name system block name system delete b lk 3": 3672,
      "##av": 3673,
      "## operation 0": 3674,
      "## file m nt had oop df s data current sub dir 25": 3675,
      "## is not f": 3676,
      "##ully functional": 3677,
      "## is not fully functional": 3678,
      "## info df s data node packet responder received block b lk 88": 3679,
      "## file m nt had oop df s data current sub dir 1": 3680,
      "##2911": 3681,
      "## file m nt had oop df s data current sub dir 36": 3682,
      "## file m nt had oop df s data current sub dir 29": 3683,
      "## file m nt had oop df s data current sub dir 39": 3684,
      "## 50010 is added to b lk 34": 3685,
      "## u 11 2005 11 04 10": 3686,
      "## file m nt had oop df s data current sub dir 8": 3687,
      "##t 0": 3688,
      "## file m nt had oop df s data current sub dir 14": 3689,
      "## file m nt had oop df s data current sub dir 37": 3690,
      "081110 02": 3691,
      "## i fetch": 3692,
      "## receiver": 3693,
      "## machine check i fetch": 3694,
      "## machine check i fetch 0": 3695,
      "## state ": 3696,
      "081110 19": 3697,
      "##1835": 3698,
      "## m 0000": 3699,
      "## chang": 3700,
      "## b lk 30": 3701,
      "## e 9": 3702,
      "## f 0": 3703,
      "## info df s data node packet responder received block b lk 67": 3704,
      "## file m nt had oop df s data current sub dir 5": 3705,
      "## file m nt had oop df s data current sub dir 28": 3706,
      "##402": 3707,
      "## file m nt had oop df s data current sub dir 19": 3708,
      "## 2005 07 23 r 13": 3709,
      "## 248": 3710,
      "## file m nt had oop df s data current sub dir 44": 3711,
      "## 2005 11 09 r 62 m 0 n": 3712,
      "## file m nt had oop df s data current sub dir 27": 3713,
      "## node card is not fully functional": 3714,
      "##rome register": 3715,
      "##ndrome register": 3716,
      "## syndrome register": 3717,
      "## exception syndrome register": 3718,
      "## 214 18": 3719,
      "##783": 3720,
      "## m sra s a 41 9000": 3721,
      "## null discovery warning node card is not fully functional": 3722,
      "## 1 ddr errors s detected and corrected on rank 0 symbol": 3723,
      "##e can": 3724,
      "##901": 3725,
      "## 1 part 01": 3726,
      "## file m nt had oop df s data current sub dir 20": 3727,
      "## file m nt had oop df s data current sub dir 51": 3728,
      "11189": 3729,
      "## file m nt had oop df s data current sub dir 42": 3730,
      "##042": 3731,
      "## a 4": 3732,
      "## 39 242": 3733,
      "## iar 0 x 00544 eb 8 dear 0 x 01 ef": 3734,
      "## file m nt had oop df s data current sub dir 63": 3735,
      "## iar 0 x 00544 ef 0 dear 0 x 01 ef": 3736,
      "## iar 0 x 00544 ea 8 dear 0 x 01 ef": 3737,
      "## iar 0 x 00544 ee 0 dear 0 x 01 ef": 3738,
      "## 214 32": 3739,
      "## file m nt had oop df s data current sub dir 52": 3740,
      "## 2005 11 10": 3741,
      "## file m nt had oop df s data current sub dir 11": 3742,
      "## file m nt had oop df s data current sub dir 21": 3743,
      "## file m nt had oop df s data current sub dir 45": 3744,
      "## 214 130": 3745,
      "## file m nt had oop df s data current sub dir 24": 3746,
      "081110 070": 3747,
      "## file m nt had oop df s data current sub dir 13": 3748,
      "## point": 3749,
      "## file m nt had oop df s data current sub dir 4": 3750,
      "## interconnect 1 n 01 switch module error 10": 3751,
      "## file m nt had oop df s data current sub dir 26": 3752,
      "##2912": 3753,
      "## 2005 07 23 r 11": 3754,
      "##2334": 3755,
      "## de st 10 250 19": 3756,
      "##782": 3757,
      "## clear": 3758,
      "## 214 112": 3759,
      "## file m nt had oop df s data current sub dir 17": 3760,
      "## is clear": 3761,
      "## 2 c": 3762,
      "## 50010 is added to b lk 29": 3763,
      "##bly": 3764,
      "## file m nt had oop df s data current sub dir 58": 3765,
      "##5182159119 00": 3766,
      "##573": 3767,
      "## 2005 07 23 r 10": 3768,
      "## 2005 06 11 r 30 m 0 n 9 c j 16 u 01 2005 06 11 17": 3769,
      "## file m nt had oop df s data current sub dir 22": 3770,
      "## file m nt had oop df s data current sub dir 7": 3771,
      "## file m nt had oop df s data current sub dir 46": 3772,
      "## file m nt had oop df s data current sub dir 56": 3773,
      "## dear 02470": 3774,
      "## file m nt had oop df s data current sub dir 55": 3775,
      "## 1005": 3776,
      "## is not asserted": 3777,
      "##403": 3778,
      "## file m nt had oop df s data current sub dir 18": 3779,
      "##2900": 3780,
      "##oot": 3781,
      "## b lk 39": 3782,
      "## file m nt had oop df s data current sub dir 62": 3783,
      "##661": 3784,
      "##rm": 3785,
      "## ff f": 3786,
      "## 2 9 f": 3787,
      "## ff f 2 9 f": 3788,
      "## alert": 3789,
      "## s d cr 0 x 01": 3790,
      "## file m nt had oop df s data current sub dir 23": 3791,
      "## 39 144": 3792,
      "## is not ok": 3793,
      "## 214 175": 3794,
      "##583": 3795,
      "## inform": 3796,
      "## file m nt had oop df s data current sub dir 16": 3797,
      "## select": 3798,
      "## info df s data node data x ce iver receiving block b lk 67": 3799,
      "## information for": 3800,
      "## info df s data node data x ce iver receiving block b lk 34": 3801,
      "##embly": 3802,
      "## pp": 3803,
      "## assembly": 3804,
      "## not get": 3805,
      "## null discovery severe can": 3806,
      "## information for node card": 3807,
      "## assembly information for node card": 3808,
      "## not get assembly information for node card": 3809,
      "## null discovery severe can not get assembly information for node card": 3810,
      "##follow": 3811,
      "## 274": 3812,
      "## s pp": 3813,
      "## s ppm": 3814,
      "##event ": 3815,
      "##3600": 3816,
      "## launcher": 3817,
      "##h y": 3818,
      "## 203 166": 3819,
      "## clock": 3820,
      "##582": 3821,
      "11207": 3822,
      "## file m nt had oop df s data current sub dir 50": 3823,
      "## 2005 07 23 r 16": 3824,
      "##e ph y": 3825,
      "## interconnect 0 n 00 switch module fan 11": 3826,
      "##lock mod": 3827,
      "## no temperatur": 3828,
      "##error latch": 3829,
      "## the 1": 3830,
      "## mask is not ": 3831,
      "## is mid plan": 3832,
      "##e error temperature": 3833,
      "##e clock mod": 3834,
      "##e is low": 3835,
      "## asic": 3836,
      "##active clock mod": 3837,
      "## temperature mask is not ": 3838,
      "##active no temperatur": 3839,
      "## j tag reset is asserted asic": 3840,
      "## null discovery error node card": 3841,
      "##are active clock mod": 3842,
      "## limit error latch": 3843,
      "## is clear p good": 3844,
      "## select is mid plan": 3845,
      "## clock select is mid plan": 3846,
      "##e ph y j tag reset is asserted asic": 3847,
      "##e error temperature limit error latch": 3848,
      "##e is low clock select is mid plan": 3849,
      "## temperature mask is not active no temperatur": 3850,
      "##are active clock mode is low clock select is mid plan": 3851,
      "##e error temperature limit error latch is clear p good": 3852,
      "## temperature mask is not active no temperature error temperature limit error latch is clear p good": 3853,
      "##are active clock mode is low clock select is mid plane ph y j tag reset is asserted asic": 3854,
      "## de st 10 250 5": 3855,
      "##ing thread": 3856,
      "## mask 0 x 40": 3857,
      "## file m nt had oop df s data current sub dir 47": 3858,
      "## 268": 3859,
      "## r 63 m 0 n 3": 3860,
      "##e the": 3861,
      "## 218": 3862,
      "## de st 10 250 15": 3863,
      "## file m nt had oop df s data current sub dir 12": 3864,
      "## 214 67": 3865,
      "## b 4": 3866,
      "## 2005 07 23 r 14": 3867,
      "## file m nt had oop df s data current sub dir 57": 3868,
      "## wi": 3869,
      "## 2005 10 17": 3870,
      "##s are active clock mode is low clock select is mid plane ph y j tag reset is asserted asic": 3871,
      "## no alert": 3872,
      "##active the": 3873,
      "## status no alert": 3874,
      "## p good error latch is ": 3875,
      "## mp good error latch is ": 3876,
      "##active mp good": 3877,
      "## is not asserted p good error latch is ": 3878,
      "## null discovery error node card status no alert": 3879,
      "## temperature mask is not active no temperature error temperature limit error latch is clear p good is not asserted p good error latch is ": 3880,
      "##active the 2": 3881,
      "## mp good error latch is active the 2": 3882,
      "## null discovery error node card status no alerts are active clock mode is low clock select is mid plane ph y j tag reset is asserted asic": 3883,
      "## temperature mask is not active no temperature error temperature limit error latch is clear p good is not asserted p good error latch is active mp good": 3884,
      "## 2005 09 20 null 2005 09 20 12 06": 3885,
      "## 26 131 50010": 3886,
      "## co": 3887,
      "##572": 3888,
      "## 5 volt rail is ok the 1": 3889,
      "## 178": 3890,
      "## 5 volt rail is ok the 1 5 volt rail is ok": 3891,
      "## is not ok mp good error latch is active the 2": 3892,
      "## temperature mask is not active no temperature error temperature limit error latch is clear p good is not asserted p good error latch is active mp good is not ok mp good error latch is active the 2": 3893,
      "## 2005 07 23 r 12": 3894,
      "## 203 149": 3895,
      "## b lk 15": 3896,
      "## file m nt had oop df s data current sub dir 60": 3897,
      "## 203 80": 3898,
      "## b gl apps follow": 3899,
      "## b gl apps followup": 3900,
      "## lr": 3901,
      "## info df s data node data x ce iver receiving block b lk 29": 3902,
      "## bu": 3903,
      "##592": 3904,
      "## file m nt had oop df s data current sub dir 53": 3905,
      "## dc dear 0244 c": 3906,
      "##org apache had oop map red": 3907,
      "## file m nt had oop df s data current sub dir 54": 3908,
      "## file m nt had oop df s data current sub dir 61": 3909,
      "## rts invalid or missing program image permission denied": 3910,
      "##1304": 3911,
      "##3425": 3912,
      "##2910": 3913,
      "## info df s data node packet responder received block b lk 29": 3914,
      "## dear 009": 3915,
      "##451": 3916,
      "## 168": 3917,
      "## ps": 3918,
      "## temperature mask is not active no temperature error temperature limit error latch is clear p good is not asserted p good error latch is active mp good is not ok mp good error latch is active the 2 5 volt rail is ok the 1 5 volt rail is ok": 3919,
      "1127": 3920,
      "## null discovery error node card status no alerts are active clock mode is low clock select is mid plane ph y j tag reset is asserted asic j tag reset is asserted": 3921,
      "## 2005 07 09 r 36": 3922,
      "11180": 3923,
      "##2909": 3924,
      "## 203 129": 3925,
      "## 52 m 0 n": 3926,
      "##6494": 3927,
      "## u 01 2005 07 13 21": 3928,
      "1118769": 3929,
      "## m 0004": 3930,
      "## 0 part 004": 3931,
      "##ip": 3932,
      "## us": 3933,
      "## node map": 3934,
      "##3211": 3935,
      "## 0 part 019": 3936,
      "## file m nt had oop df s data current sub dir 48": 3937,
      "## 0000000": 3938,
      "## file m nt had oop df s data current sub dir 59": 3939,
      "## u 11 2005 07 13 21": 3940,
      "## file m nt had oop df s data current sub dir 49": 3941,
      "## 67 211 50010": 3942,
      "##2913": 3943,
      "## 2005 07 09 r 37": 3944,
      "## info df s data node packet responder received block b lk 34": 3945,
      "##eep": 3946,
      "11211": 3947,
      "## 1 n iff node node": 3948,
      "## null discovery error node card status no alerts are active clock mode is low clock select is mid plane ph y j tag reset is asserted asic j tag reset is asserted temperature mask is not active no temperature error temperature limit error latch is clear p good is not asserted p good error latch is active mp good is not ok mp good error latch is active the 2 5 volt rail is ok the 1 5 volt rail is ok": 3949,
      "## file m nt had oop df s data current sub dir 15": 3950,
      "## i j 18 u 01 ras kernel fatal": 3951,
      "## r 30 m 0 n 7": 3952,
      "## 75 143 50010": 3953,
      "## m 0009": 3954,
      "## u 01 2005 06 13 17": 3955,
      "1121599": 3956,
      "## b lk 25": 3957,
      "## 222": 3958,
      "## u 11 2005 07 04 07": 3959,
      "11212": 3960,
      "## 1005 floating point alignment exceptions": 3961,
      "081111 01": 3962,
      "##941": 3963,
      "081111 0655": 3964,
      "##nc": 3965,
      "## b lk 50": 3966,
      "## floating point": 3967,
      "2015 10 17 23": 3968,
      "## 203 4": 3969,
      "## 50010 is added to b lk 30": 3970,
      "## 111 228 50010": 3971,
      "081110 1": 3972,
      "## dear 01": 3973,
      "## 43 192 50010": 3974,
      "## 30 info df s fs name system block name system delete b lk 7": 3975,
      "## communic": 3976,
      "113147": 3977,
      "## client": 3978,
      "## i j 18 u 11 ras kernel fatal": 3979,
      "##593": 3980,
      "## 14 38 50010": 3981,
      "## 2005 07 09 r 27": 3982,
      "##figured out": 3983,
      "## 38 214 50010": 3984,
      "## 10 23": 3985,
      "## 193 175 50010": 3986,
      "## 2005 07 09 r 21": 3987,
      "1131127": 3988,
      "## 6 191 50010": 3989,
      "## 66 192 50010": 3990,
      "## iar 003 a 9260 dear 00": 3991,
      "## v nm": 3992,
      "## 26 info df s fs name system block name system delete b lk 7": 3993,
      "## 0 part 014": 3994,
      "## 107 19 50010": 3995,
      "## psr": 3996,
      "## 71 240 50010": 3997,
      "## 199 225 50010": 3998,
      "## 122 65 50010": 3999,
      "11325": 4000,
      "## 90 81 50010": 4001,
      "##ach": 4002,
      "## u 01 2005 07 04 07": 4003,
      "## 110 68 50010": 4004,
      "## u 11 2005 06 13 17": 4005,
      "## 123 20 50010": 4006,
      "## 27 info df s fs name system block name system delete b lk 8": 4007,
      "## u 01 2005 07 10 07": 4008,
      "## 122 79 50010": 4009,
      "## u 11 2005 07 10 07": 4010,
      "## 70 5 50010": 4011,
      "## 43 115 50010": 4012,
      "## 199 86 50010": 4013,
      "## rm communic": 4014,
      "## rm communicator": 4015,
      "##2915": 4016,
      "## 195 33 50010": 4017,
      "## 10 144 50010": 4018,
      "## 110 196 50010": 4019,
      "## data cach": 4020,
      "## 105 189 50010": 4021,
      "##2555": 4022,
      "## 110 160 50010": 4023,
      "081110 113": 4024,
      "##3722": 4025,
      "## 31 160 50010": 4026,
      "## 2005 07 09 r 20": 4027,
      "## 194 245 50010": 4028,
      "## 0 x 00000000": 4029,
      "## r 02 m 1 n 0 c j 12 u 11 2005 06 06": 4030,
      "## 2005 06 06 r 02 m 1 n 0 c j 12 u 11 2005 06 06": 4031,
      "## 118": 4032,
      "## 75 163 50010": 4033,
      "1120968": 4034,
      "## 106 50 50010": 4035,
      "## al locator": 4036,
      "## b lk 17": 4037,
      "## 11 194 50010": 4038,
      "## home s pel ce 1 hpc c ibm urgent cop 64 k": 4039,
      "## i j 18 u 01 ras kernel fatal lustre mount failed bg lio": 4040,
      "## rm communicator al locator": 4041,
      "## 7 32 50010": 4042,
      "##3412": 4043,
      "## 42 16 50010": 4044,
      "## 70 211 50010": 4045,
      "## program interrupt fp cr": 4046,
      "## s d cr 0 x 02": 4047,
      "## 2005 09 20 null 2005 09 20 12 09": 4048,
      "##1727": 4049,
      "## 126 227 50010": 4050,
      "## 7 146 50010": 4051,
      "## bytes": 4052,
      "## 2005 06 11 r 30 m 0 n 9 c j 16 u 01 2005 06 11 23": 4053,
      "## 110 8 50010": 4054,
      "## 685 floating point alignment exceptions": 4055,
      "## 107 196 50010": 4056,
      "## 74 79 50010": 4057,
      "## 30 101 50010": 4058,
      "## 71 16 50010": 4059,
      "## 42 9 50010": 4060,
      "## 67 4 50010": 4061,
      "## 111 130 50010": 4062,
      "## 70 112 50010": 4063,
      "## 66 102 50010": 4064,
      "##2413": 4065,
      "## 2005 07 09 r 22": 4066,
      "11334484": 4067,
      "## 38 53 50010": 4068,
      "## 30 179 50010": 4069,
      "11334479": 4070,
      "## 38 197 50010": 4071,
      "## 215 70 50010": 4072,
      "## 11 53 50010": 4073,
      "## 126 5 50010": 4074,
      "## 2005 07 09 r 31": 4075,
      "## 127 47 50010": 4076,
      "## 91 15 50010": 4077,
      "## 67 225 50010": 4078,
      "## 75 49 50010": 4079,
      "## 89 155 50010": 4080,
      "## 10 100 50010": 4081,
      "## 66 63 50010": 4082,
      "## 203 246": 4083,
      "## ec": 4084,
      "## 75 228 50010": 4085,
      "## 42 207 50010": 4086,
      "## 10 213 50010": 4087,
      "##1515": 4088,
      "1120094": 4089,
      "## fd": 4090,
      "## 42 84 50010": 4091,
      "## 487": 4092,
      "## 10 6 50010": 4093,
      "## 0 at": 4094,
      "## 27 info df s fs name system block name system delete b lk 7": 4095,
      "## 2005 07 09 r 26": 4096,
      "## 6 4 50010": 4097,
      "## 195 70 50010": 4098,
      "## 199 245 50010": 4099,
      "##6470": 4100,
      "##pu": 4101,
      "## 43 210 50010": 4102,
      "## 125 174 50010": 4103,
      "## 37 240 50010": 4104,
      "## 6 223 50010": 4105,
      "## 30 134 50010": 4106,
      "## 17 177 50010": 4107,
      "##3419": 4108,
      "## 29 239 50010": 4109,
      "## 201 204 50010": 4110,
      "## 111 37 50010": 4111,
      "## 73 188 50010": 4112,
      "## 126 83 50010": 4113,
      "## r 16 m 1 n 2 c j 17 u 01 2005 06": 4114,
      "## 65 237 50010": 4115,
      "## 15 198 50010": 4116,
      "## r 72 m 0 n": 4117,
      "## 27 63 50010": 4118,
      "##ched": 4119,
      "## 70 37 50010": 4120,
      "## 90 239 50010": 4121,
      "## dem": 4122,
      "## 107 227 50010": 4123,
      "## b gl dem": 4124,
      "## 199 150 50010": 4125,
      "## b gl demo": 4126,
      "## 35 1 50010": 4127,
      "## 31 85 50010": 4128,
      "## 6 214 50010": 4129,
      "## 7 230 50010": 4130,
      "## c j 04 u 11 2005 10": 4131,
      "## 106 37 50010": 4132,
      "## 107 98 50010": 4133,
      "## 125 193 50010": 4134,
      "##tempting to": 4135,
      "## 43 21 50010": 4136,
      "## 109 209 50010": 4137,
      "## 121 224 50010": 4138,
      "## server filesystem domain": 4139,
      "## 31 242 50010": 4140,
      "## 123 1 50010": 4141,
      "## 197 161 50010": 4142,
      "## u 11 2005 07 23 11": 4143,
      "## 193 224 50010": 4144,
      "## rm rm": 4145,
      "## 26 info df s fs name system block name system delete b lk 8": 4146,
      "##chedul": 4147,
      "## 13 240 50010": 4148,
      "## 71 193 50010": 4149,
      "## 65 203 50010": 4150,
      "## 26 8 50010": 4151,
      "## 199 159 50010": 4152,
      "## 126 22 50010": 4153,
      "## 109 236 50010": 4154,
      "## 30 85 50010": 4155,
      "## 26 177 50010": 4156,
      "## e 08": 4157,
      "## 91 84 50010": 4158,
      "## ip 10": 4159,
      "##2427": 4160,
      "## u 01 2005 07 24 18": 4161,
      "## 194 129 50010": 4162,
      "## 199 19 50010": 4163,
      "## 11 100 50010": 4164,
      "1121312": 4165,
      "## 66 3 50010": 4166,
      "## 10 223 50010": 4167,
      "## 39 209": 4168,
      "## 71 146 50010": 4169,
      "## newer": 4170,
      "##e re newer": 4171,
      "## r 16 m 1 n 2 c j 17 u 01 ras kernel info ce sym": 4172,
      "## lease re newer": 4173,
      "## 14 196 50010": 4174,
      "##3300": 4175,
      "## 111 209 50010": 4176,
      "## 2005 07 09 r 24": 4177,
      "## 9 207 50010": 4178,
      "## 00 0 d 60 e 9": 4179,
      "## 42 191 50010": 4180,
      "## 39 192": 4181,
      "## chip": 4182,
      "## 127 191 50010": 4183,
      "## 67 113 50010": 4184,
      "112077": 4185,
      "## 198 196 50010": 4186,
      "## 198 33 50010": 4187,
      "##6704": 4188,
      "## 194 213 50010": 4189,
      "## 194 102 50010": 4190,
      "##2344": 4191,
      "## 17 05": 4192,
      "## 17 225 50010": 4193,
      "## 31 180 50010": 4194,
      "## 71 68 50010": 4195,
      "## 91 159 50010": 4196,
      "## 43 147 50010": 4197,
      "## 30 6 50010": 4198,
      "## 13 188 50010": 4199,
      "## 91 229 50010": 4200,
      "## 75 79 50010": 4201,
      "## 90 134 50010": 4202,
      "## ido chip": 4203,
      "## 122 38 50010": 4204,
      "## 2005 11 15": 4205,
      "## 215 192 50010": 4206,
      "## 125 237 50010": 4207,
      "## of size 284": 4208,
      "## b lk 40": 4209,
      "## 215 50 50010": 4210,
      "## 202 181 50010": 4211,
      "## 31 5 50010": 4212,
      "## i j 18 u 11 ras kernel fatal lustre mount failed bg lio": 4213,
      "## 195 52 50010": 4214,
      "##2949": 4215,
      "## 123 132 50010": 4216,
      "## my": 4217,
      "## 194 147 50010": 4218,
      "## 90 64 50010": 4219,
      "##ing f": 4220,
      "## 14 143 50010": 4221,
      "##3515": 4222,
      "## 42 246 50010": 4223,
      "## 7 244 50010": 4224,
      "## 106 10 50010": 4225,
      "## b lk 27": 4226,
      "##1800": 4227,
      "## 15 67 50010": 4228,
      "## mask 0 x 01": 4229,
      "## 07 12": 4230,
      "## 30 info df s fs name system block name system delete b lk 8": 4231,
      "## info df s data node packet responder packet responder 0 for block b lk 9": 4232,
      "## u 01 2005 07 23 11": 4233,
      "##2014": 4234,
      "## 18 114 50010": 4235,
      "## dear 02494 c": 4236,
      "## b lk 70": 4237,
      "## b lk 59": 4238,
      "##2619": 4239,
      "## 39 179": 4240,
      "## 215 16 50010": 4241,
      "##3517": 4242,
      "## unknown location null discovery info": 4243,
      "## 19 info df s fs data set deleting block b lk 64": 4244,
      "## 202 209 50010": 4245,
      "## 111 80 50010": 4246,
      "## disp": 4247,
      "## u 01 ras kernel fatal rts kernel terminated for reason 100": 4248,
      "## dispatch": 4249,
      "##3500": 4250,
      "##69 terminating": 4251,
      "##2059": 4252,
      "## 2005 11 03 17": 4253,
      "## 106 214 50010": 4254,
      "## 127 243 50010": 4255,
      "## 197 226 50010": 4256,
      "## bin": 4257,
      "## org apache had oop map reduce v 2 app rm rm": 4258,
      "##ad message on cio stream socket to 172 16 96 116": 4259,
      "## u 11 2005 07 24 18": 4260,
      "## ras app fatal cio d error reading message prefix after load message on cio stream socket to 172 16 96 116": 4261,
      "## r 23 m 0 n 8": 4262,
      "## i j 18 u 11 ras app fatal cio d error reading message prefix on cio stream socket to 172 16 96 116": 4263,
      "## 123 195 50010": 4264,
      "## 7 96 50010": 4265,
      "## 107 242 50010": 4266,
      "## 62500": 4267,
      "## 126 255 50010": 4268,
      "## 71 97 50010": 4269,
      "081111 103": 4270,
      "## 62500 floating point alignment exceptions": 4271,
      "##3939": 4272,
      "## 73 220 50010": 4273,
      "##1059": 4274,
      "##3404": 4275,
      "## size 284": 4276,
      "## 202 134 50010": 4277,
      "## 1 con": 4278,
      "##2417": 4279,
      "## 11 85 50010": 4280,
      "##3059": 4281,
      "##er event ": 4282,
      "081110 124": 4283,
      "## m 0 n 9 c j 06": 4284,
      "## server c": 4285,
      "## 1 fan speeds 3552 3534 3375": 4286,
      "## info df s data node data x ce iver receiving block b lk 30": 4287,
      "## nio": 4288,
      "## info rm communicator al locator": 4289,
      "## home german n 2 b gl demo": 4290,
      "## info df s data node packet responder received block b lk 30": 4291,
      "##1834": 4292,
      "1120935": 4293,
      "## parity error": 4294,
      "## info df s data node packet responder received block b lk 39": 4295,
      "##2599": 4296,
      "## i j 18 u 11 2005 12": 4297,
      "##3917": 4298,
      "## m 0 nb c j 10": 4299,
      "## 25 237 50010": 4300,
      "## 10 176 50010": 4301,
      "## u 11 2005 07 01 17": 4302,
      "##2037": 4303,
      "## dear 00 b": 4304,
      "##rol": 4305,
      "##3037": 4306,
      "##2812": 4307,
      "##2635": 4308,
      "## 50010 is added to b lk 39": 4309,
      "## 123 99 50010": 4310,
      "## b lk 49": 4311,
      "081110 05": 4312,
      "## b lk 12": 4313,
      "## info df s data node packet responder packet responder 1 for block b lk 9": 4314,
      "## my id": 4315,
      "## nio server c": 4316,
      "## current": 4317,
      "##2327": 4318,
      "## container ": 4319,
      "##2527": 4320,
      "##2013": 4321,
      "##nc dispatch": 4322,
      "## info df s data node packet responder packet responder 2 for block b lk 9": 4323,
      "##865": 4324,
      "## 203 179": 4325,
      "## 1 configured out": 4326,
      "##3437": 4327,
      "## cc": 4328,
      "## 91 32 50010": 4329,
      "##s ra": 4330,
      "## b lk 14": 4331,
      "##1411": 4332,
      "##3427": 4333,
      "## 214 225": 4334,
      "##3011": 4335,
      "##2027": 4336,
      "##c 000": 4337,
      "## 2005 06 03": 4338,
      "## 0 x 0 b": 4339,
      "##s re": 4340,
      "112258": 4341,
      "## c 0": 4342,
      "## i j 18 u 01 ras app fatal cio d error reading message prefix on cio stream socket to 172 16 96 116": 4343,
      "##3044": 4344,
      "## 2005 06 15": 4345,
      "## 14 224 50010": 4346,
      "##2015": 4347,
      "## 27 info df s fs name system block name system delete b lk 6": 4348,
      "##ession": 4349,
      "## u 01 2005 07 23 18": 4350,
      "##handl": 4351,
      "##2814": 4352,
      "## ba": 4353,
      "##2800": 4354,
      "## comp": 4355,
      "##3710": 4356,
      "## i j 18 u 01 2005 12": 4357,
      "##1613": 4358,
      "## 0 xc 000": 4359,
      "##401": 4360,
      "##2817": 4361,
      "## 2005 11 21 r 26 m 0 n 0": 4362,
      "##3435": 4363,
      "##2924": 4364,
      "##2313": 4365,
      "## 2005 11 21 r 26 m 0 n 0 i j 18 u 11 2005 11 21": 4366,
      "## x iar": 4367,
      "## i j 18 u 11 ras kernel info machine check": 4368,
      "## r 26 m 0 n 0 i j 18 u 11 ras kernel info machine check": 4369,
      "## lr 0 xc 000": 4370,
      "## x iar 0 x 00000000": 4371,
      "##2317": 4372,
      "##45 a 4": 4373,
      "## mc e 08": 4374,
      "## d cr read": 4375,
      "## time out mc e 08": 4376,
      "## r 26 m 0 n 0 i j 18 u 11 ras kernel info machine check d cr read": 4377,
      "## lr 0 xc 00045 a 4": 4378,
      "## x iar 0 x 00000000 lr 0 xc 00045 a 4": 4379,
      "## time out mc e 08 x iar 0 x 00000000 lr 0 xc 00045 a 4": 4380,
      "## r 26 m 0 n 0 i j 18 u 11 ras kernel info machine check d cr read time out mc e 08 x iar 0 x 00000000 lr 0 xc 00045 a 4": 4381,
      "##791": 4382,
      "## u 11 2005 07 23 18": 4383,
      "##al locator": 4384,
      "## 19 info df s fs data set deleting block b lk 88": 4385,
      "## container al locator": 4386,
      "##67 terminating": 4387,
      "## session": 4388,
      "##3015": 4389,
      "##8114": 4390,
      "## 50010 is added to b lk 50": 4391,
      "## torus": 4392,
      "##3909": 4393,
      "## address 0 x 00000002": 4394,
      "##2035": 4395,
      "## 50010 is added to b lk 15": 4396,
      "## r 20 m 1 nf": 4397,
      "## 09 18": 4398,
      "## m 1 n 6 c j 15": 4399,
      "## u 01 ras kernel fatal program interrupt": 4400,
      "##2611": 4401,
      "## r 73 m 0 n": 4402,
      "## 2005 07 09 r 25": 4403,
      "##5 e ": 4404,
      "##3959": 4405,
      "##2319": 4406,
      "## 50010 is added to b lk 17": 4407,
      "## spill": 4408,
      "## 2005 07 09 r 23": 4409,
      "## li": 4410,
      "##2049": 4411,
      "## 30 info df s fs name system block name system delete b lk 4": 4412,
      "## 39 160": 4413,
      "##1013": 4414,
      "##2515": 4415,
      "## mask 0 x 80": 4416,
      "##3759": 4417,
      "##60 terminating": 4418,
      "## 00000002": 4419,
      "##3235": 4420,
      "##1412": 4421,
      "## info df s data node data x ce iver receiving block b lk 39": 4422,
      "2015 10 19 17": 4423,
      "##3709": 4424,
      "081110 18": 4425,
      "## u 11 2005 07 03 20": 4426,
      "## 1 cluster filesystem": 4427,
      "##2312": 4428,
      "##1609": 4429,
      "## 50010 is added to b lk 40": 4430,
      "##951": 4431,
      "1120469": 4432,
      "## 2005 09 20 null 2005 09 20 12 12": 4433,
      "##2300": 4434,
      "##3919": 4435,
      "## 2005 06 28": 4436,
      "##3911": 4437,
      "##1664": 4438,
      "## info rm communicator al locator org apache had oop map reduce v 2 app rm rm": 4439,
      "##2019": 4440,
      "##2609": 4441,
      "##1600": 4442,
      "## 3 d": 4443,
      "## 136": 4444,
      "##handler ": 4445,
      "##ri": 4446,
      "##3027": 4447,
      "##2959": 4448,
      "## 26 info df s fs name system block name system delete b lk 6": 4449,
      "## u 01 2005 07 01 17": 4450,
      "## control": 4451,
      "## 2181": 4452,
      "## 13 t": 4453,
      "##3750": 4454,
      "## 30 info df s fs name system block name system delete b lk 5": 4455,
      "2015 10 17 15": 4456,
      "##2055": 4457,
      "## 26 info df s fs name system block name system delete b lk 4": 4458,
      "##3912": 4459,
      "## b lk 24": 4460,
      "## 50010 is added to b lk 25": 4461,
      "##2815": 4462,
      "## u 11 ras kernel fatal program interrupt": 4463,
      "## b lk 44": 4464,
      "##2513": 4465,
      "##3010": 4466,
      "1120940": 4467,
      "##6700": 4468,
      "##041": 4469,
      "##3200": 4470,
      "## b gl apps sw l performance mini ben": 4471,
      "##ync dispatch": 4472,
      "## info a s": 4473,
      "##3711": 4474,
      "##arch": 4475,
      "##1819": 4476,
      "##er event handler ": 4477,
      "##ync dispatcher event handler ": 4478,
      "## info a sync dispatcher event handler ": 4479,
      "##3 gig e temperature": 4480,
      "## gig e 3 gig e temperature": 4481,
      "1131126": 4482,
      "##5144": 4483,
      "##64 terminating": 4484,
      "## is added to invalid set of 10 250 19": 4485,
      "## 2005 07 09 r 35": 4486,
      "081110 013": 4487,
      "##e search": 4488,
      "##org apache had oop map reduce v 2 app": 4489,
      "##e search parity error": 4490,
      "##2011": 4491,
      "##1019": 4492,
      "## 26 info df s fs name system block name system delete b lk 5": 4493,
      "##2559": 4494,
      "## v 13 t": 4495,
      "##lle": 4496,
      "##gal": 4497,
      "## ille": 4498,
      "## 50010 is added to b lk 70": 4499,
      "1120216": 4500,
      "## illegal": 4501,
      "## b lk 10": 4502,
      "## 27 info df s fs name system block name system delete b lk 5": 4503,
      "##2517": 4504,
      "##3439": 4505,
      "##26 terminating": 4506,
      "## 30 info df s fs name system block name system delete b lk 6": 4507,
      "##2512": 4508,
      "## is added to invalid set of 10 250 5": 4509,
      "## retry": 4510,
      "##2929": 4511,
      "##3400": 4512,
      "##3715": 4513,
      "##2835": 4514,
      "##2227": 4515,
      "## info df s data node data x ce iver receiving block b lk 50": 4516,
      "##18 terminating": 4517,
      "## 0 x 008": 4518,
      "## c j 15 u 11 ras kernel info ce sym": 4519,
      "## 0 0 0 0 0 0 0 0": 4520,
      "##3317": 4521,
      "##6713": 4522,
      "##3035": 4523,
      "##8509": 4524,
      "## 2005 07 09 r 34": 4525,
      "## on 5": 4526,
      "##28 terminating": 4527,
      "## 0 0 0 0 0 0 0 0 2181": 4528,
      "##3844": 4529,
      "##2627": 4530,
      "## 22 15": 4531,
      "## 130 50010": 4532,
      "## 27 info df s fs name system block name system delete b lk 4": 4533,
      "##2519": 4534,
      "##3415": 4535,
      "2015 10 18 21": 4536,
      "##e w": 4537,
      "##993": 4538,
      "##2459": 4539,
      "##3913": 4540,
      "## u 11 2005 06 30 09": 4541,
      "##3409": 4542,
      "##1612": 4543,
      "## u 01 2005 07 09 10": 4544,
      "##2594": 4545,
      "##3700": 4546,
      "##16 terminating": 4547,
      "##6513": 4548,
      "##1619": 4549,
      "##event": 4550,
      "##ut ": 4551,
      "081110 134": 4552,
      "## ffff f 0": 4553,
      "##3915": 4554,
      "25": 4555,
      "## attempting to": 4556,
      "## 144 50010": 4557,
      "## detected attempting to": 4558,
      "## detected attempting to correct": 4559,
      "## r 02 m 0 n 4 c j 04 u 11 2005 10": 4560,
      "##6464": 4561,
      "## is added to invalid set of 10 250 15": 4562,
      "## dear 0 x 1 fe a a": 4563,
      "##3012": 4564,
      "## i j 18 u 11 ras kernel info cio d generated 128 core files for program": 4565,
      "##2535": 4566,
      "##2012": 4567,
      "##2569": 4568,
      "##3411": 4569,
      "## 242 50010": 4570,
      "## data cache search parity error": 4571,
      "## data cache search parity error detected attempting to correct": 4572,
      "## 19 info df s fs data set deleting block b lk 67": 4573,
      "## r 02 m 0 n 4 c j 04 u 11 ras kernel info": 4574,
      "## exception syndrome register 0 x 008": 4575,
      "## 2005 10 17 r 02 m 0 n 4 c j 04 u 11 2005 10": 4576,
      "## r 02 m 0 n 4 c j 04 u 11 ras kernel info data cache search parity error detected attempting to correct": 4577,
      "## exception syndrome register 0 x 00800000": 4578,
      "##2504": 4579,
      "## 1 link errors re": 4580,
      "##main current": 4581,
      "## 1 link errors remain current": 4582,
      "## info df s data node data x ce iver receiving block b lk 15": 4583,
      "## b lk 19": 4584,
      "##2904": 4585,
      "## input ": 4586,
      "##3717": 4587,
      "## 112 50010": 4588,
      "##1055": 4589,
      "##30 terminating": 4590,
      "## 67 50010": 4591,
      "##23 terminating": 4592,
      "##6011": 4593,
      "## info df s fs name system block name system allocate block user root rand 8 temporary task 200811101024 0015 m 000": 4594,
      "## info df s fs name system block name system allocate block user root rand txt 2 temporary task 200811101024 0002 m 000": 4595,
      "112021": 4596,
      "##20 terminating": 4597,
      "##1719": 4598,
      "## 64 50010": 4599,
      "1121308": 4600,
      "##3955": 4601,
      "##3413": 4602,
      "##1615": 4603,
      "## info df s data node data x ce iver receiving block b lk 17": 4604,
      "## u 11 2005 08 28 03": 4605,
      "##69 size 67108864": 4606,
      "##2813": 4607,
      "## u 01 2005 08 28 03": 4608,
      "##2529": 4609,
      "## u 01 2005 06 30 09": 4610,
      "##pe error": 4611,
      "##2509": 4612,
      "##2809": 4613,
      "## r 62 m 0 n 4": 4614,
      "##pipe error": 4615,
      "## input pipe error": 4616,
      "## input pipe error s d cr 0 x 02": 4617,
      "##3244": 4618,
      "## 107 50 50010": 4619,
      "##1015": 4620,
      "##22 terminating": 4621,
      "##6584": 4622,
      "##39 terminating": 4623,
      "## 688": 4624,
      "##3809": 4625,
      "## of size 354": 4626,
      "2015 10 17 22": 4627,
      "##65 terminating": 4628,
      "## mask 0 x 08": 4629,
      "## u 11 2005 11 09 16": 4630,
      "## info df s fs name system block name system allocate block user root rand txt 3 temporary task 200811101024 0007 m 000": 4631,
      "##1400": 4632,
      "##2044": 4633,
      "## 19 info df s fs data set deleting block b lk 34": 4634,
      "2015 10 19 14": 4635,
      "##oot command": 4636,
      "##67 size 67108864": 4637,
      "##3540": 4638,
      "##3455": 4639,
      "##34 terminating": 4640,
      "##2315": 4641,
      "##3815": 4642,
      "## mask 0 x 20": 4643,
      "##fer": 4644,
      "081110 20": 4645,
      "##3704": 4646,
      "## u 11 2005 07 09 10": 4647,
      "##861": 4648,
      "## 175 50010": 4649,
      "## info df s fs name system block name system allocate block user root rand temporary task 200811092030 0001 m 000": 4650,
      "##64 size 67108864": 4651,
      "## transfer": 4652,
      "##14 terminating": 4653,
      "##3215": 4654,
      "## u 01 2005 06 25 09": 4655,
      "##3417": 4656,
      "## i j 18 u 01 ras kernel info cio d generated 64 core files for program": 4657,
      "##2455": 4658,
      "081110 123": 4659,
      "## info df s fs name system block name system allocate block user root rand txt 5 temporary task 200811101024 0012 m 000": 4660,
      "##2411": 4661,
      "##2544": 4662,
      "## ask": 4663,
      "## 50010 is added to b lk 59": 4664,
      "## info df s data node packet responder received block b lk 50": 4665,
      "## size 354": 4666,
      "## interconnect 1 t 01": 4667,
      "##3754": 4668,
      "## 166 50010": 4669,
      "## cb": 4670,
      "## 400": 4671,
      "##1455": 4672,
      "##3019": 4673,
      "##3900": 4674,
      "##3319": 4675,
      "## u 01 2005 07 03 20": 4676,
      "## u 11 ras kernel info iar 00106210 dear 0244 c": 4677,
      "##2944": 4678,
      "##3712": 4679,
      "##3944": 4680,
      "## 2005 07 09 r 30": 4681,
      "## b 8": 4682,
      "##3055": 4683,
      "##2827": 4684,
      "##29 terminating": 4685,
      "##1617": 4686,
      "##2309": 4687,
      "##2610": 4688,
      "## 20 17": 4689,
      "## info df s fs name system block name system allocate block user root rand txt temporary task 200811092030 0003 m 000": 4690,
      "##3719": 4691,
      "##25 terminating": 4692,
      "## info df s data node data x ce iver receiving block b lk 25": 4693,
      "##3949": 4694,
      "##3813": 4695,
      "## info df s fs name system block name system allocate block user root rand 6 temporary task 200811101024 0013 m 000": 4696,
      "##2017": 4697,
      "## 246 50010": 4698,
      "## 1 fan speeds 3552 3534 3375 3515 3479": 4699,
      "##ce 0": 4700,
      "##26 size 67108864": 4701,
      "## info df s data node packet responder received block b lk 15": 4702,
      "## r 62 m 0 nd": 4703,
      "##3017": 4704,
      "## 18 50010": 4705,
      "## u 01 2005 07 23 08": 4706,
      "## schedul": 4707,
      "##37 terminating": 4708,
      "## 32 50010": 4709,
      "##6927": 4710,
      "## 1 boot command": 4711,
      "##28 size 67108864": 4712,
      "##3927": 4713,
      "##1809": 4714,
      "##2617": 4715,
      "## info df s fs name system block name system allocate block user root rand 3 temporary task 200811101024 0005 m 000": 4716,
      "##3744": 4717,
      "##60 size 67108864": 4718,
      "## 129 50010": 4719,
      "##s c": 4720,
      "## bf": 4721,
      "##3817": 4722,
      "## static": 4723,
      "##3312": 4724,
      "##2314": 4725,
      "##1813": 4726,
      "## i j 18 u 01 ras kernel info cio d generated 128 core files for program": 4727,
      "## info rm communicator al locator org apache had oop map reduce v 2 app rm rm container al locator": 4728,
      "##bi": 4729,
      "##35 terminating": 4730,
      "##3100": 4731,
      "## u 11 2005 06 25 09": 4732,
      "##s rabi": 4733,
      "## info df s data node packet responder received block b lk 17": 4734,
      "##34 size 67108864": 4735,
      "081110 2208": 4736,
      "## tree": 4737,
      "##3519": 4738,
      "##6969": 4739,
      "##8989": 4740,
      "## u 01 2005 06 29 18": 4741,
      "## 149 50010": 4742,
      "## info df s fs name system block name system allocate block user root rand txt 9 temporary task 200811101024 0016 m 000": 4743,
      "## 50010 is added to b lk 44": 4744,
      "##000000000": 4745,
      "##1611": 4746,
      "##2600": 4747,
      "## pre": 4748,
      "##2412": 4749,
      "##2629": 4750,
      "##1812": 4751,
      "##2219": 4752,
      "##1427": 4753,
      "##992": 4754,
      "##2419": 4755,
      "## ms rabi": 4756,
      "##8500": 4757,
      "##1627": 4758,
      "## b lk 89": 4759,
      "## b lk 69": 4760,
      "##3559": 4761,
      "##1827": 4762,
      "081110 112": 4763,
      "##1459": 4764,
      "##2054": 4765,
      "## 03 switch module error 10": 4766,
      "##1413": 4767,
      "##02000": 4768,
      "## space 0": 4769,
      "## address space 0": 4770,
      "##2905": 4771,
      "##3527": 4772,
      "##87 terminating": 4773,
      "## r 62 m 0 nc": 4774,
      "##3050": 4775,
      "##39 size 67108864": 4776,
      "## 4 50010": 4777,
      "##3049": 4778,
      "## r 20 m 1 nb": 4779,
      "## 19 info df s fs data set deleting block b lk 29": 4780,
      "## bd": 4781,
      "## info df s fs name system block name system allocate block user root rand txt 4 temporary task 200811101024 0010 m 000": 4782,
      "##2311": 4783,
      "## info df s fs name system block name system allocate block user root rand 7 temporary task 200811101024 0014 m 000": 4784,
      "##2511": 4785,
      "## u 11 2005 07 18 10": 4786,
      "## u 11 2005 07 23 08": 4787,
      "## 138": 4788,
      "##3227": 4789,
      "##2549": 4790,
      "##2010": 4791,
      "##2819": 4792,
      "## u 01 2005 11 09 16": 4793,
      "##1419": 4794,
      "##6511": 4795,
      "## 3888": 4796,
      "## m 1 n 3 c j 07": 4797,
      "##3511": 4798,
      "##1815": 4799,
      "## u 01 ras kernel info iar 00106210 dear 0244 c": 4800,
      "##65 size 67108864": 4801,
      "## u 01 2005 07 18 10": 4802,
      "## info df s fs name system block name system allocate block user root rand 5 temporary task 200811101024 0011 m 000": 4803,
      "##3459": 4804,
      "##771": 4805,
      "##2615": 4806,
      "##3827": 4807,
      "## 0 start index": 4808,
      "## 50010 is added to b lk 14": 4809,
      "##2613": 4810,
      "## info df s fs name system block name system allocate block user root rand 4 temporary task 200811101024 0009 m 000": 4811,
      "##3410": 4812,
      "##3054": 4813,
      "##2212": 4814,
      "##6789": 4815,
      "##3609": 4816,
      "## i j 18 u 11 ras kernel info cio d generated 64 core files for program": 4817,
      "##3315": 4818,
      "## 80 50010": 4819,
      "##2040": 4820,
      "##2917": 4821,
      "## 50010 is added to b lk 49": 4822,
      "##25 size 67108864": 4823,
      "##3737": 4824,
      "##2950": 4825,
      "## info df s data node packet responder received block b lk 40": 4826,
      "##3819": 4827,
      "## r 63 m 0 nf": 4828,
      "##1614": 4829,
      "##6719": 4830,
      "## 2005 09 02": 4831,
      "##ken": 4832,
      "##3344": 4833,
      "## info df s data node data x ce iver receiving block b lk 70": 4834,
      "##6755": 4835,
      "## info df s data node packet responder received block b lk 70": 4836,
      "## r 52 m 0 n": 4837,
      "## r 62 m 0 n 0": 4838,
      "## r 63 m 0 na": 4839,
      "##3013": 4840,
      "##3217": 4841,
      "## b 0": 4842,
      "##6487": 4843,
      "## info df s data node packet responder received block b lk 25": 4844,
      "##1624": 4845,
      "##3479": 4846,
      "## info df s data node data x ce iver receiving block b lk 40": 4847,
      "##2844": 4848,
      "##6427": 4849,
      "##2955": 4850,
      "## 50010 is added to b lk 19": 4851,
      "2015 10 19 15": 4852,
      "##88 terminating": 4853,
      "##20 size 67108864": 4854,
      "## 50010 is added to b lk 10": 4855,
      "##85 terminating": 4856,
      "##6709": 4857,
      "##2554": 4858,
      "## r 62 m 0 n 8": 4859,
      "##header": 4860,
      "##6459": 4861,
      "##2310": 4862,
      "## u 11 2005 06 29 18": 4863,
      "## dear 0245 b": 4864,
      "##6587": 4865,
      "## 042": 4866,
      "##16 size 67108864": 4867,
      "##3910": 4868,
      "##2612": 4869,
      "## ff f 2 9 f 16": 4870,
      "##2979": 4871,
      "## 50010 is added to b lk 12": 4872,
      "##6715": 4873,
      "##3509": 4874,
      "##84 terminating": 4875,
      "## 494": 4876,
      "##3144": 4877,
      "##6779": 4878,
      "##2919": 4879,
      "## 09 15": 4880,
      "## pt ex": 4881,
      "## floating pt ex": 4882,
      "## floating pt ex mod": 4883,
      "##600": 4884,
      "##3504": 4885,
      "##3800": 4886,
      "##6794": 4887,
      "##1844": 4888,
      "## pr": 4889,
      "## info df s fs name system block name system allocate block user root rand temporary task 200811101024 0001 m 000": 4890,
      "## in r": 4891,
      "11334477": 4892,
      "##6413": 4893,
      "##24 terminating": 4894,
      "## 50010 is added to b lk 27": 4895,
      "##ue": 4896,
      "##30 size 67108864": 4897,
      "## spasm static": 4898,
      "##18 size 67108864": 4899,
      "##973": 4900,
      "##3612": 4901,
      "##571": 4902,
      "## gig e 7 gig e temperature 10": 4903,
      "##6900": 4904,
      "## 1 1": 4905,
      "081110 221": 4906,
      "## m 0 n 9 c j 02": 4907,
      "## r 63 m 0 n 0": 4908,
      "##6717": 4909,
      "##8479": 4910,
      "##80 size 67108864": 4911,
      "##89 terminating": 4912,
      "##1300": 4913,
      "112170": 4914,
      "##2415": 4915,
      "##3617": 4916,
      "081110 143": 4917,
      "## unit": 4918,
      "##3544": 4919,
      "## u 01 2005 06 06": 4920,
      "##2211": 4921,
      "##2200": 4922,
      "##473": 4923,
      "## 0 part 017": 4924,
      "##1227": 4925,
      "##2839": 4926,
      "##6979": 4927,
      "## 50010 is added to b lk 24": 4928,
      "## info df s data node data x ce iver receiving block b lk 59": 4929,
      "##3327": 4930,
      "##2510": 4931,
      "##1911": 4932,
      "##1610": 4933,
      "## 15 08": 4934,
      "## 26 info df s fs name system block name system delete b lk 3": 4935,
      "##6517": 4936,
      "## b lk 79": 4937,
      "##2539": 4938,
      "##3611": 4939,
      "## 27 info df s fs name system block name system delete b lk 3": 4940,
      "##6904": 4941,
      "##1454": 4942,
      "##6599": 4943,
      "##972": 4944,
      "##1409": 4945,
      "##6539": 4946,
      "##2217": 4947,
      "## 0 part 007": 4948,
      "##3209": 4949,
      "##29 size 67108864": 4950,
      "## 2005 12 09 12": 4951,
      "##6013": 4952,
      "##3335": 4953,
      "##6909": 4954,
      "##8494": 4955,
      "##3610": 4956,
      "##22 size 67108864": 4957,
      "##85 size 67108864": 4958,
      "## 4587": 4959,
      "## u 01 2005 07 12 05": 4960,
      "## m 1 nf c j 07": 4961,
      "## 0 x 00002000": 4962,
      "##3713": 4963,
      "081111 102": 4964,
      "## container launcher": 4965,
      "##3513": 4966,
      "##37 size 67108864": 4967,
      "##2209": 4968,
      "## r 63 m 0 nd": 4969,
      "##3727": 4970,
      "##6079": 4971,
      "##2215": 4972,
      "## m 1 nb c j 02": 4973,
      "##3777": 4974,
      "##6955": 4975,
      "##2810": 4976,
      "##8700": 4977,
      "##38 terminating": 4978,
      "##6559": 4979,
      "##32 terminating": 4980,
      "## r 35 m 0 n 0": 4981,
      "## b lk 11": 4982,
      "##3414": 4983,
      "##6988": 4984,
      "##2624": 4985,
      "##36 terminating": 4986,
      "##32 size 67108864": 4987,
      "##3512": 4988,
      "##80 terminating": 4989,
      "##3311": 4990,
      "## m 1 na c j 06": 4991,
      "##3030": 4992,
      "##561": 4993,
      "## info df s data node packet responder received block b lk 27": 4994,
      "##3755": 4995,
      "##2927": 4996,
      "## 512": 4997,
      "##3510": 4998,
      "##1817": 4999
    }
  }
}