{
  "version": "1.0",
  "truncation": null,
  "padding": null,
  "added_tokens": [
    {
      "id": 0,
      "content": "[PAD]",
      "single_word": false,
      "lstrip": false,
      "rstrip": false,
      "normalized": false,
      "special": true
    },
    {
      "id": 1,
      "content": "[UNK]",
      "single_word": false,
      "lstrip": false,
      "rstrip": false,
      "normalized": false,
      "special": true
    },
    {
      "id": 2,
      "content": "[CLS]",
      "single_word": false,
      "lstrip": false,
      "rstrip": false,
      "normalized": false,
      "special": true
    },
    {
      "id": 3,
      "content": "[SEP]",
      "single_word": false,
      "lstrip": false,
      "rstrip": false,
      "normalized": false,
      "special": true
    },
    {
      "id": 4,
      "content": "[MASK]",
      "single_word": false,
      "lstrip": false,
      "rstrip": false,
      "normalized": false,
      "special": true
    }
  ],
  "normalizer": {
    "type": "BertNormalizer",
    "clean_text": true,
    "handle_chinese_chars": true,
    "strip_accents": null,
    "lowercase": true
  },
  "pre_tokenizer": {
    "type": "BertPreTokenizer"
  },
  "post_processor": {
    "type": "TemplateProcessing",
    "single": [
      {
        "SpecialToken": {
          "id": "[CLS]",
          "type_id": 0
        }
      },
      {
        "Sequence": {
          "id": "A",
          "type_id": 0
        }
      },
      {
        "SpecialToken": {
          "id": "[SEP]",
          "type_id": 0
        }
      }
    ],
    "pair": [
      {
        "SpecialToken": {
          "id": "[CLS]",
          "type_id": 0
        }
      },
      {
        "Sequence": {
          "id": "A",
          "type_id": 0
        }
      },
      {
        "SpecialToken": {
          "id": "[SEP]",
          "type_id": 0
        }
      },
      {
        "Sequence": {
          "id": "B",
          "type_id": 1
        }
      },
      {
        "SpecialToken": {
          "id": "[SEP]",
          "type_id": 1
        }
      }
    ],
    "special_tokens": {
      "[CLS]": {
        "id": "[CLS]",
        "ids": [
          2
        ],
        "tokens": [
          "[CLS]"
        ]
      },
      "[SEP]": {
        "id": "[SEP]",
        "ids": [
          3
        ],
        "tokens": [
          "[SEP]"
        ]
      }
    }
  },
  "decoder": {
    "type": "WordPiece",
    "prefix": "##",
    "cleanup": true
  },
  "model": {
    "type": "WordPiece",
    "unk_token": "[UNK]",
    "continuing_subword_prefix": "##",
    "max_input_chars_per_word": 100,
    "vocab": {
      "[PAD]": 0,
      "[UNK]": 1,
      "[CLS]": 2,
      "[SEP]": 3,
      "[MASK]": 4,
      "'": 5,
      "a": 6,
      "b": 7,
      "c": 8,
      "d": 9,
      "e": 10,
      "f": 11,
      "g": 12,
      "h": 13,
      "i": 14,
      "j": 15,
      "k": 16,
      "l": 17,
      "m": 18,
      "n": 19,
      "o": 20,
      "p": 21,
      "q": 22,
      "r": 23,
      "s": 24,
      "t": 25,
      "u": 26,
      "v": 27,
      "w": 28,
      "x": 29,
      "y": 30,
      "z": 31,
      "##h": 32,
      "##u": 33,
      "##t": 34,
      "##d": 35,
      "##o": 36,
      "##w": 37,
      "##n": 38,
      "##c": 39,
      "##s": 40,
      "##e": 41,
      "##x": 42,
      "##p": 43,
      "##l": 44,
      "##y": 45,
      "##v": 46,
      "##r": 47,
      "##b": 48,
      "##k": 49,
      "##i": 50,
      "##m": 51,
      "##a": 52,
      "##g": 53,
      "##j": 54,
      "##q": 55,
      "##f": 56,
      "##z": 57,
      "##er": 58,
      "##ck": 59,
      "##at": 60,
      "in": 61,
      "##lo": 62,
      "##lock": 63,
      "block": 64,
      "##fo": 65,
      "info": 66,
      "df": 67,
      "lk": 68,
      "##ata": 69,
      "data": 70,
      "##et": 71,
      "##in": 72,
      "##ed": 73,
      "re": 74,
      "##or": 75,
      "##em": 76,
      "##me": 77,
      "##st": 78,
      "##on": 79,
      "##ing": 80,
      "na": 81,
      "sy": 82,
      "##stem": 83,
      "system": 84,
      "name": 85,
      "##el": 86,
      "no": 87,
      "##de": 88,
      "node": 89,
      "pa": 90,
      "##as": 91,
      "##ond": 92,
      "##sp": 93,
      "##ce": 94,
      "##cket": 95,
      "packet": 96,
      "resp": 97,
      "respond": 98,
      "responder": 99,
      "fs": 100,
      "ad": 101,
      "add": 102,
      "ras": 103,
      "##ern": 104,
      "kern": 105,
      "to": 106,
      "kernel": 107,
      "##en": 108,
      "st": 109,
      "##ating": 110,
      "##iv": 111,
      "si": 112,
      "rece": 113,
      "receiv": 114,
      "##ze": 115,
      "size": 116,
      "is": 117,
      "of": 118,
      "added": 119,
      "##le": 120,
      "##ro": 121,
      "##ver": 122,
      "##al": 123,
      "set": 124,
      "del": 125,
      "delet": 126,
      "ce": 127,
      "##ar": 128,
      "iver": 129,
      "ma": 130,
      "##rr": 131,
      "de": 132,
      "##pt": 133,
      "for": 134,
      "cor": 135,
      "##ile": 136,
      "map": 137,
      "##ent": 138,
      "##ion": 139,
      "##ad": 140,
      "##ener": 141,
      "stor": 142,
      "##erm": 143,
      "##ated": 144,
      "core": 145,
      "received": 146,
      "gener": 147,
      "term": 148,
      "up": 149,
      "##rom": 150,
      "from": 151,
      "rc": 152,
      "termin": 153,
      "receiving": 154,
      "upd": 155,
      "file": 156,
      "stored": 157,
      "updated": 158,
      "terminating": 159,
      "generating": 160,
      "##ub": 161,
      "di": 162,
      "##op": 163,
      "##val": 164,
      "had": 165,
      "oop": 166,
      "##id": 167,
      "##an": 168,
      "inval": 169,
      "invalid": 170,
      "##ec": 171,
      "dir": 172,
      "nt": 173,
      "cu": 174,
      "##rrent": 175,
      "current": 176,
      "delete": 177,
      "deleting": 178,
      "sub": 179,
      "al": 180,
      "ex": 181,
      "##ic": 182,
      "int": 183,
      "inter": 184,
      "##ru": 185,
      "err": 186,
      "##it": 187,
      "error": 188,
      "exce": 189,
      "##ption": 190,
      "exception": 191,
      "##ask": 192,
      "##ot": 193,
      "ser": 194,
      "##rupt": 195,
      "interrupt": 196,
      "##ect": 197,
      "##ss": 198,
      "fata": 199,
      "fatal": 200,
      "##and": 201,
      "##ig": 202,
      "serv": 203,
      "tem": 204,
      "temp": 205,
      "##ch": 206,
      "##re": 207,
      "task": 208,
      "par": 209,
      "nc": 210,
      "##cat": 211,
      "##nt": 212,
      "iar": 213,
      "dear": 214,
      "##oot": 215,
      "ap": 216,
      "##ign": 217,
      "us": 218,
      "##ment": 219,
      "##ignment": 220,
      "alignment": 221,
      "##ary": 222,
      "exceptions": 223,
      "part": 224,
      "root": 225,
      "##econd": 226,
      "##econds": 227,
      "tempor": 228,
      "rand": 229,
      "user": 230,
      "allo": 231,
      "allocat": 232,
      "temporary": 233,
      "allocate": 234,
      "ne": 235,
      "mic": 236,
      "micro": 237,
      "micros": 238,
      "microseconds": 239,
      "##ut": 240,
      "nb": 241,
      "nf": 242,
      "##arn": 243,
      "nd": 244,
      "warn": 245,
      "##um": 246,
      "cr": 247,
      "pro": 248,
      "or": 249,
      "##io": 250,
      "##put": 251,
      "input": 252,
      "at": 253,
      "served": 254,
      "##ct": 255,
      "##ical": 256,
      "do": 257,
      "##itical": 258,
      "critical": 259,
      "interrupts": 260,
      "##ected": 261,
      "app": 262,
      "cio": 263,
      "##ra": 264,
      "##ag": 265,
      "##he": 266,
      "sp": 267,
      "wh": 268,
      "while": 269,
      "on": 270,
      "corr": 271,
      "got": 272,
      "serving": 273,
      "##ur": 274,
      "##ul": 275,
      "##ction": 276,
      "inst": 277,
      "the": 278,
      "lo": 279,
      "po": 280,
      "##ach": 281,
      "##ache": 282,
      "##tal": 283,
      "total": 284,
      "id": 285,
      "##ull": 286,
      "##int": 287,
      "point": 288,
      "##ime": 289,
      "##atu": 290,
      "prog": 291,
      "time": 292,
      "##umm": 293,
      "flo": 294,
      "floating": 295,
      "##uble": 296,
      "double": 297,
      "##ummer": 298,
      "hummer": 299,
      "max": 300,
      "##age": 301,
      "null": 302,
      "dd": 303,
      "##ab": 304,
      "ido": 305,
      "spent": 306,
      "##ress": 307,
      "lin": 308,
      "##ram": 309,
      "program": 310,
      "gr": 311,
      "so": 312,
      "##ort": 313,
      "sym": 314,
      "ass": 315,
      "##ert": 316,
      "su": 317,
      "##able": 318,
      "##un": 319,
      "##empt": 320,
      "att": 321,
      "attempt": 322,
      "##il": 323,
      "ddr": 324,
      "assert": 325,
      "##ler": 326,
      "hand": 327,
      "handler": 328,
      "##xt": 329,
      "mask": 330,
      "txt": 331,
      "corrected": 332,
      "red": 333,
      "tr": 334,
      "##eratu": 335,
      "temperatu": 336,
      "temperature": 337,
      "ev": 338,
      "##ruction": 339,
      "instruction": 340,
      "##od": 341,
      "gl": 342,
      "##ff": 343,
      "gig": 344,
      "tran": 345,
      "co": 346,
      "mp": 347,
      "sw": 348,
      "det": 349,
      "detected": 350,
      "##onn": 351,
      "##onnect": 352,
      "##ation": 353,
      "org": 354,
      "apache": 355,
      "exp": 356,
      "##gn": 357,
      "##urce": 358,
      "sign": 359,
      "signal": 360,
      "##ance": 361,
      "##im": 362,
      "##ading": 363,
      "source": 364,
      "##sport": 365,
      "transport": 366,
      "##ail": 367,
      "##iss": 368,
      "##ork": 369,
      "##end": 370,
      "link": 371,
      "sc": 372,
      "event": 373,
      "lb": 374,
      "##all": 375,
      "dt": 376,
      "dtl": 377,
      "not": 378,
      "correct": 379,
      "send": 380,
      "call": 381,
      "calls": 382,
      "an": 383,
      "was": 384,
      "correctable": 385,
      "maxim": 386,
      "maximum": 387,
      "sing": 388,
      "single": 389,
      "cache": 390,
      "instance": 391,
      "dur": 392,
      "during": 393,
      "rb": 394,
      "##ity": 395,
      "##ule": 396,
      "com": 397,
      "##cce": 398,
      "##if": 399,
      "##itch": 400,
      "switch": 401,
      "##connect": 402,
      "interconnect": 403,
      "mod": 404,
      "module": 405,
      "address": 406,
      "succe": 407,
      "server": 408,
      "##ication": 409,
      "apps": 410,
      "##ann": 411,
      "un": 412,
      "ef": 413,
      "files": 414,
      "##eded": 415,
      "im": 416,
      "ver": 417,
      "succeeded": 418,
      "parity": 419,
      "##ification": 420,
      "##ist": 421,
      "##ol": 422,
      "scann": 423,
      "scanner": 424,
      "verification": 425,
      "##ess": 426,
      "##ard": 427,
      "##pc": 428,
      "##ory": 429,
      "ch": 430,
      "miss": 431,
      "missing": 432,
      "image": 433,
      "loading": 434,
      "and": 435,
      "card": 436,
      "dis": 437,
      "work": 438,
      "##ts": 439,
      "fun": 440,
      "function": 441,
      "mess": 442,
      "message": 443,
      "rts": 444,
      "mpl": 445,
      "mc": 446,
      "prox": 447,
      "proxy": 448,
      "se": 449,
      "ho": 450,
      "##co": 451,
      "worker": 452,
      "statu": 453,
      "status": 454,
      "tra": 455,
      "##ix": 456,
      "con": 457,
      "db": 458,
      "##pp": 459,
      "##ition": 460,
      "##cover": 461,
      "##covery": 462,
      "home": 463,
      "discovery": 464,
      "direct": 465,
      "fail": 466,
      "##atch": 467,
      "directory": 468,
      "line": 469,
      "failed": 470,
      "such": 471,
      "##est": 472,
      "##ir": 473,
      "locat": 474,
      "mcs": 475,
      "##uce": 476,
      "reduce": 477,
      "pm": 478,
      "trace": 479,
      "##ud": 480,
      "##ate": 481,
      "warning": 482,
      "cond": 483,
      "condition": 484,
      "cpp": 485,
      "hit": 486,
      "##ression": 487,
      "expression": 488,
      "tl": 489,
      "glc": 490,
      "pav": 491,
      "doud": 492,
      "expir": 493,
      "##ain": 494,
      "interval": 495,
      "expired": 496,
      "pre": 497,
      "##ient": 498,
      "##am": 499,
      "net": 500,
      "ipc": 501,
      "list": 502,
      "listener": 503,
      "##art": 504,
      "start": 505,
      "cl": 506,
      "has": 507,
      "##ust": 508,
      "##ream": 509,
      "stream": 510,
      "go": 511,
      "act": 512,
      "ed": 513,
      "activ": 514,
      "ee": 515,
      "good": 516,
      "active": 517,
      "cont": 518,
      "er": 519,
      "storage": 520,
      "qu": 521,
      "sever": 522,
      "mo": 523,
      "sort": 524,
      "socket": 525,
      "out": 526,
      "be": 527,
      "en": 528,
      "res": 529,
      "##nst": 530,
      "ernst": 531,
      "ea": 532,
      "che": 533,
      "check": 534,
      "generated": 535,
      "##wn": 536,
      "ok": 537,
      "by": 538,
      "fc": 539,
      "##ystem": 540,
      "##fix": 541,
      "prefix": 542,
      "filesystem": 543,
      "connect": 544,
      "location": 545,
      "##us": 546,
      "comm": 547,
      "##orum": 548,
      "quorum": 549,
      "man": 550,
      "manag": 551,
      "##own": 552,
      "##rm": 553,
      "manager": 554,
      "am": 555,
      "##nown": 556,
      "connection": 557,
      "comp": 558,
      "##bient": 559,
      "ambient": 560,
      "fff": 561,
      "##known": 562,
      "unknown": 563,
      "reading": 564,
      "log": 565,
      "##work": 566,
      "network": 567,
      "state": 568,
      "##pe": 569,
      "latch": 570,
      "enable": 571,
      "nx": 572,
      "asserted": 573,
      "per": 574,
      "##cess": 575,
      "process": 576,
      "##qu": 577,
      "##ine": 578,
      "th": 579,
      "login": 580,
      "bit": 581,
      "been": 582,
      "test": 583,
      "main": 584,
      "severed": 585,
      "mach": 586,
      "machine": 587,
      "gb": 588,
      "new": 589,
      "fe": 590,
      "##ied": 591,
      "##ission": 592,
      "rm": 593,
      "bg": 594,
      "##ank": 595,
      "errors": 596,
      "rank": 597,
      "iff": 598,
      "contain": 599,
      "container": 600,
      "##bol": 601,
      "symbol": 602,
      "progress": 603,
      "syn": 604,
      "##orm": 605,
      "norm": 606,
      "normal": 607,
      "##asm": 608,
      "spasm": 609,
      "##ini": 610,
      "perm": 611,
      "den": 612,
      "permission": 613,
      "denied": 614,
      "vp": 615,
      "reset": 616,
      "##ft": 617,
      "fan": 618,
      "clust": 619,
      "cluster": 620,
      "eb": 621,
      "run": 622,
      "code": 623,
      "dc": 624,
      "##ger": 625,
      "mb": 626,
      "pel": 627,
      "op": 628,
      "cm": 629,
      "ff": 630,
      "processor": 631,
      "vol": 632,
      "cv": 633,
      "##gist": 634,
      "##gister": 635,
      "ib": 636,
      "ibm": 637,
      "register": 638,
      "ben": 639,
      "ffff": 640,
      "##form": 641,
      "perform": 642,
      "hpc": 643,
      "mini": 644,
      "store": 645,
      "le": 646,
      "ty": 647,
      "seconds": 648,
      "requ": 649,
      "performance": 650,
      "type": 651,
      "##unt": 652,
      "##und": 653,
      "events": 654,
      "##ace": 655,
      "request": 656,
      "as": 657,
      "wa": 658,
      "wait": 659,
      "##es": 660,
      "##vail": 661,
      "##vailable": 662,
      "ca": 663,
      "##ug": 664,
      "##ptor": 665,
      "tag": 666,
      "##main": 667,
      "clock": 668,
      "rail": 669,
      "volt": 670,
      "mount": 671,
      "tor": 672,
      "torus": 673,
      "ra": 674,
      "thre": 675,
      "lio": 676,
      "read": 677,
      "command": 678,
      "##etr": 679,
      "##ound": 680,
      "cid": 681,
      "mode": 682,
      "found": 683,
      "action": 684,
      "##ang": 685,
      "slo": 686,
      "lust": 687,
      "lustre": 688,
      "over": 689,
      "##let": 690,
      "complet": 691,
      "##ee": 692,
      "locator": 693,
      "ur": 694,
      "##gent": 695,
      "urgent": 696,
      "##ly": 697,
      "##ill": 698,
      "unix": 699,
      "##ator": 700,
      "all": 701,
      "sra": 702,
      "chang": 703,
      "full": 704,
      "##ree": 705,
      "tree": 706,
      "oper": 707,
      "operation": 708,
      "byt": 709,
      "available": 710,
      "bc": 711,
      "trans": 712,
      "nm": 713,
      "##rome": 714,
      "slot": 715,
      "##ase": 716,
      "##ead": 717,
      "##ning": 718,
      "running": 719,
      "exec": 720,
      "raptor": 721,
      "receiver": 722,
      "conf": 723,
      "##eed": 724,
      "thread": 725,
      "client": 726,
      "germ": 727,
      "german": 728,
      "config": 729,
      "##cher": 730,
      "pl": 731,
      "##sh": 732,
      "aft": 733,
      "after": 734,
      "ac": 735,
      "fp": 736,
      "##ob": 737,
      "functional": 738,
      "configur": 739,
      "##ale": 740,
      "scale": 741,
      "job": 742,
      "##se": 743,
      "vi": 744,
      "fet": 745,
      "fetch": 746,
      "##face": 747,
      "interface": 748,
      "via": 749,
      "reas": 750,
      "reason": 751,
      "inde": 752,
      "index": 753,
      "terminated": 754,
      "ec": 755,
      "cop": 756,
      "##up": 757,
      "lim": 758,
      "limit": 759,
      "retr": 760,
      "##eger": 761,
      "integer": 762,
      "form": 763,
      "format": 764,
      "speed": 765,
      "speeds": 766,
      "pt": 767,
      "domain": 768,
      "cc": 769,
      "match": 770,
      "##th": 771,
      "low": 772,
      "lease": 773,
      "ph": 774,
      "la": 775,
      "cle": 776,
      "kv": 777,
      "fa": 778,
      "caus": 779,
      "pr": 780,
      "load": 781,
      "deb": 782,
      "caused": 783,
      "debug": 784,
      "ip": 785,
      "mid": 786,
      "##ane": 787,
      "plane": 788,
      "head": 789,
      "bro": 790,
      "severe": 791,
      "hk": 792,
      "laun": 793,
      "commun": 794,
      "completion": 795,
      "##ue": 796,
      "get": 797,
      "bu": 798,
      "bytes": 799,
      "fol": 800,
      "##av": 801,
      "synd": 802,
      "syndrome": 803,
      "can": 804,
      "alert": 805,
      "boot": 806,
      "are": 807,
      "clear": 808,
      "pp": 809,
      "ppm": 810,
      "cd": 811,
      "##low": 812,
      "##emb": 813,
      "sel": 814,
      "select": 815,
      "fully": 816,
      "ps": 817,
      "asic": 818,
      "follow": 819,
      "inform": 820,
      "information": 821,
      "##are": 822,
      "alerts": 823,
      "assemb": 824,
      "assembly": 825,
      "wi": 826,
      "alt": 827,
      "cb": 828,
      "change": 829,
      "followup": 830,
      "launcher": 831,
      "lr": 832,
      "configured": 833,
      "##ering": 834,
      "ms": 835,
      "sync": 836,
      "psr": 837,
      "##eep": 838,
      "sh": 839,
      "communic": 840,
      "fd": 841,
      "communicator": 842,
      "##ched": 843,
      "my": 844,
      "##ip": 845,
      "ba": 846,
      "xc": 847,
      "newer": 848,
      "attempting": 849,
      "sched": 850,
      "fi": 851,
      "dem": 852,
      "demo": 853,
      "chip": 854,
      "##pl": 855,
      "nio": 856,
      "##lle": 857,
      "bin": 858,
      "header": 859,
      "disp": 860,
      "dispatch": 861,
      "dispatcher": 862,
      "spill": 863,
      "li": 864,
      "##rol": 865,
      "control": 866,
      "sess": 867,
      "session": 868,
      "retry": 869,
      "ille": 870,
      "##gal": 871,
      "illegal": 872,
      "pi": 873,
      "pipe": 874,
      "bd": 875,
      "##arch": 876,
      "search": 877,
      "bf": 878,
      "ask": 879,
      "##fff": 880,
      "##ri": 881,
      "ffffff": 882,
      "##fer": 883,
      "transfer": 884,
      "exe": 885,
      "stat": 886,
      "remain": 887,
      "static": 888,
      "##ken": 889,
      "prep": 890,
      "rab": 891,
      "rabi": 892,
      "space": 893,
      "io": 894,
      "da": 895,
      "unit": 896,
      "##rec": 897,
      "kb": 898,
      "output": 899,
      "supp": 900,
      "##ics": 901,
      "stab": 902,
      "changed": 903,
      "responding": 904,
      "##ther": 905,
      "clo": 906,
      "dev": 907,
      "fact": 908,
      "open": 909,
      "completed": 910,
      "los": 911,
      "factory": 912,
      "lv": 913,
      "fur": 914,
      "further": 915,
      "cp": 916,
      "sent": 917,
      "##ressing": 918,
      "suppressing": 919,
      "##ice": 920,
      "bb": 921,
      "schedul": 922,
      "cf": 923,
      "sa": 924,
      "wire": 925,
      "disable": 926,
      "yarn": 927,
      "same": 928,
      "##onent": 929,
      "component": 930,
      "metr": 931,
      "metrics": 932,
      "pd": 933,
      "pdt": 934,
      "cpu": 935,
      "synch": 936,
      "##abl": 937,
      "maps": 938,
      "##ates": 939,
      "yates": 940,
      "que": 941,
      "queue": 942,
      "loc": 943,
      "local": 944,
      "##ement": 945,
      "##ld": 946,
      "old": 947,
      "bad": 948,
      "au": 949,
      "##ernal": 950,
      "##prec": 951,
      "broken": 952,
      "interrupted": 953,
      "waiting": 954,
      "bi": 955,
      "##eld": 956,
      "field": 957,
      "equ": 958,
      "equator": 959,
      "service": 960,
      "leav": 961,
      "leaving": 962,
      "ys": 963,
      "##ith": 964,
      "with": 965,
      "cbf": 966,
      "ic": 967,
      "interrupting": 968,
      "trap": 969,
      "chrome": 970,
      "##ged": 971,
      "##ivile": 972,
      "privile": 973,
      "privileged": 974,
      "##ility": 975,
      "corp": 976,
      "##oft": 977,
      "microsoft": 978,
      "far": 979,
      "east": 980,
      "stability": 981,
      "edu": 982,
      "cx": 983,
      "byte": 984,
      "##igned": 985,
      "soft": 986,
      "mem": 987,
      "mt": 988,
      "##ca": 989,
      "will": 990,
      "##adca": 991,
      "broadca": 992,
      "broadcast": 993,
      "memory": 994,
      "close": 995,
      "fee": 996,
      "##ok": 997,
      "fb": 998,
      "##eer": 999,
      "lif": 1000,
      "##etime": 1001,
      "lifetime": 1002,
      "cre": 1003,
      "peer": 1004,
      "reds": 1005,
      "##ant": 1006,
      "et": 1007,
      "aux": 1008,
      "##ise": 1009,
      "imprec": 1010,
      "imprecise": 1011,
      "##iary": 1012,
      "##iliary": 1013,
      "auxiliary": 1014,
      "sweep": 1015,
      "des": 1016,
      "##ecting": 1017,
      "expecting": 1018,
      "etcher": 1019,
      "desc": 1020,
      "##riptor": 1021,
      "descriptor": 1022,
      "creating": 1023,
      "update": 1024,
      "xf": 1025,
      "compare": 1026,
      "starting": 1027,
      "jav": 1028,
      "java": 1029,
      "##ource": 1030,
      "resource": 1031,
      "##shed": 1032,
      "pix": 1033,
      "instead": 1034,
      "ord": 1035,
      "ordering": 1036,
      "ext": 1037,
      "lon": 1038,
      "pak": 1039,
      "cores": 1040,
      "##impl": 1041,
      "unimpl": 1042,
      "##emented": 1043,
      "unimplemented": 1044,
      "##ugh": 1045,
      "##eeper": 1046,
      "zo": 1047,
      "##okeeper": 1048,
      "zookeeper": 1049,
      "longer": 1050,
      "external": 1051,
      "##itt": 1052,
      "tests": 1053,
      "fl": 1054,
      "##available": 1055,
      "unavailable": 1056,
      "ab": 1057,
      "##old": 1058,
      "thresh": 1059,
      "threshold": 1060,
      "scheduled": 1061,
      "##df": 1062,
      "hdf": 1063,
      "assigned": 1064,
      "##icate": 1065,
      "opt": 1066,
      "##cy": 1067,
      "##ency": 1068,
      "lat": 1069,
      "latency": 1070,
      "pol": 1071,
      "repl": 1072,
      "configuration": 1073,
      "str": 1074,
      "##om": 1075,
      "##ord": 1076,
      "num": 1077,
      "spec": 1078,
      "transition": 1079,
      "transitioned": 1080,
      "##lem": 1081,
      "##blem": 1082,
      "problem": 1083,
      "sle": 1084,
      "tue": 1085,
      "af": 1086,
      "replicate": 1087,
      "wall": 1088,
      "wallen": 1089,
      "##mitt": 1090,
      "retrying": 1091,
      "transmitt": 1092,
      "transmitted": 1093,
      "##abled": 1094,
      "partition": 1095,
      "enabled": 1096,
      "len": 1097,
      "##ies": 1098,
      "##ex": 1099,
      "##ath": 1100,
      "##ash": 1101,
      "flash": 1102,
      "sup": 1103,
      "##ty": 1104,
      "rack": 1105,
      "aug": 1106,
      "##ial": 1107,
      "use": 1108,
      "##pected": 1109,
      "unex": 1110,
      "unexpected": 1111,
      "pack": 1112,
      "cn": 1113,
      "gath": 1114,
      "debugger": 1115,
      "gathering": 1116,
      "poll": 1117,
      "died": 1118,
      "fini": 1119,
      "descriptors": 1120,
      "##ild": 1121,
      "##la": 1122,
      "gre": 1123,
      "dirty": 1124,
      "##ping": 1125,
      "child": 1126,
      "dram": 1127,
      "finished": 1128,
      "##ella": 1129,
      "stella": 1130,
      "##gth": 1131,
      "length": 1132,
      "rec": 1133,
      "vo": 1134,
      "void": 1135,
      "##sion": 1136,
      "rel": 1137,
      "inf": 1138,
      "xn": 1139,
      "##tp": 1140,
      "ht": 1141,
      "http": 1142,
      "##erno": 1143,
      "inferno": 1144,
      "md": 1145,
      "short": 1146,
      "##ying": 1147,
      "trying": 1148,
      "success": 1149,
      "##ume": 1150,
      "volume": 1151,
      "non": 1152,
      "vend": 1153,
      "##sher": 1154,
      "fisher": 1155,
      "ren": 1156,
      "lt": 1157,
      "lton": 1158,
      "##ew": 1159,
      "renew": 1160,
      "fend": 1161,
      "##ich": 1162,
      "cal": 1163,
      "##uld": 1164,
      "shortly": 1165,
      "bec": 1166,
      "##ware": 1167,
      "def": 1168,
      "##ult": 1169,
      "##po": 1170,
      "spilling": 1171,
      "could": 1172,
      "down": 1173,
      "port": 1174,
      "xx": 1175,
      "hard": 1176,
      "hardware": 1177,
      "execut": 1178,
      "stop": 1179,
      "xl": 1180,
      "##sl": 1181,
      "mdc": 1182,
      "ssl": 1183,
      "##cul": 1184,
      "calcul": 1185,
      "wr": 1186,
      "green": 1187,
      "##ases": 1188,
      "##ratch": 1189,
      "scratch": 1190,
      "##cases": 1191,
      "testcases": 1192,
      "writ": 1193,
      "##ault": 1194,
      "default": 1195,
      "shut": 1196,
      "pur": 1197,
      "##ere": 1198,
      "there": 1199,
      "xy": 1200,
      "xyz": 1201,
      "eeee": 1202,
      "registers": 1203,
      "gu": 1204,
      "##uch": 1205,
      "eeeeee": 1206,
      "write": 1207,
      "guar": 1208,
      "guarant": 1209,
      "touch": 1210,
      "guaranteed": 1211,
      "##pose": 1212,
      "purpose": 1213,
      "##uff": 1214,
      "bbc": 1215,
      "stopping": 1216,
      "shuff": 1217,
      "##sm": 1218,
      "bas": 1219,
      "specul": 1220,
      "thro": 1221,
      "through": 1222,
      "lp": 1223,
      "##eds": 1224,
      "##lection": 1225,
      "exceeds": 1226,
      "election": 1227,
      "resol": 1228,
      "slee": 1229,
      "https": 1230,
      "ut": 1231,
      "util": 1232,
      "commit": 1233,
      "##iz": 1234,
      "bfc": 1235,
      "bcc": 1236,
      "##ass": 1237,
      "sequ": 1238,
      "##room": 1239,
      "headroom": 1240,
      "schedule": 1241,
      "calculating": 1242,
      "mm": 1243,
      "retries": 1244,
      "sec": 1245,
      "sod": 1246,
      "##aling": 1247,
      "scaling": 1248,
      "pan": 1249,
      "je": 1250,
      "jeff": 1251,
      "panic": 1252,
      "hp": 1253,
      "xff": 1254,
      "mer": 1255,
      "unt": 1256,
      "##ested": 1257,
      "untested": 1258,
      "mps": 1259,
      "cards": 1260,
      "est": 1261,
      "shuffle": 1262,
      "##abli": 1263,
      "establi": 1264,
      "reduces": 1265,
      "rt": 1266,
      "execution": 1267,
      "rtsp": 1268,
      "efc": 1269,
      "sep": 1270,
      "summ": 1271,
      "summary": 1272,
      "tom": 1273,
      "tri": 1274,
      "ep": 1275,
      "acce": 1276,
      "triad": 1277,
      "ct": 1278,
      "met": 1279,
      "slow": 1280,
      "##ady": 1281,
      "alre": 1282,
      "already": 1283,
      "into": 1284,
      "pas": 1285,
      "bl": 1286,
      "word": 1287,
      "min": 1288,
      "cast": 1289,
      "jv": 1290,
      "jvm": 1291,
      "rep": 1292,
      "opening": 1293,
      "##ys": 1294,
      "fdf": 1295,
      "##per": 1296,
      "##base": 1297,
      "database": 1298,
      "mir": 1299,
      "##anda": 1300,
      "miranda": 1301,
      "##inate": 1302,
      "##men": 1303,
      "phys": 1304,
      "physical": 1305,
      "dimen": 1306,
      "coord": 1307,
      "dimension": 1308,
      "coordinate": 1309,
      "cec": 1310,
      "dro": 1311,
      "ci": 1312,
      "hy": 1313,
      "jag": 1314,
      "mf": 1315,
      "rich": 1316,
      "##aw": 1317,
      "claw": 1318,
      "hyper": 1319,
      "##ized": 1320,
      "##ox": 1321,
      "tried": 1322,
      "processing": 1323,
      "sender": 1324,
      "##ansm": 1325,
      "retransm": 1326,
      "retransmission": 1327,
      "ins": 1328,
      "insert": 1329,
      "inserted": 1330,
      "dra": 1331,
      "eger": 1332,
      "prepare": 1333,
      "##ber": 1334,
      "ml": 1335,
      "tim": 1336,
      "sleep": 1337,
      "##ting": 1338,
      "kill": 1339,
      "##ults": 1340,
      "results": 1341,
      "lines": 1342,
      "thu": 1343,
      "minin": 1344,
      "ccf": 1345,
      "tun": 1346,
      "tuned": 1347,
      "token": 1348,
      "##ages": 1349,
      "ck": 1350,
      "aver": 1351,
      "averages": 1352,
      "clean": 1353,
      "box": 1354,
      "caugh": 1355,
      "caught": 1356,
      "hist": 1357,
      "timed": 1358,
      "shutting": 1359,
      "tested": 1360,
      "cann": 1361,
      "cannot": 1362,
      "number": 1363,
      "##annel": 1364,
      "channel": 1365,
      "cleanup": 1366,
      "band": 1367,
      "##wid": 1368,
      "bandwid": 1369,
      "bandwidth": 1370,
      "redund": 1371,
      "redundant": 1372,
      "random": 1373,
      "news": 1374,
      "mn": 1375,
      "only": 1376,
      "##ure": 1377,
      "communication": 1378,
      "##one": 1379,
      "done": 1380,
      "nfs": 1381,
      "history": 1382,
      "host": 1383,
      "##ster": 1384,
      "master": 1385,
      "learn": 1386,
      "learner": 1387,
      "reply": 1388,
      "appl": 1389,
      "application": 1390,
      "xh": 1391,
      "successf": 1392,
      "##ge": 1393,
      "we": 1394,
      "wel": 1395,
      "##come": 1396,
      "welcome": 1397,
      "end": 1398,
      "based": 1399,
      "slept": 1400,
      "tar": 1401,
      "##get": 1402,
      "target": 1403,
      "val": 1404,
      "ky": 1405,
      "dept": 1406,
      "clos": 1407,
      "depth": 1408,
      "it": 1409,
      "mon": 1410,
      "api": 1411,
      "##ogn": 1412,
      "unrec": 1413,
      "##ognized": 1414,
      "unrecognized": 1415,
      "dec": 1416,
      "closed": 1417,
      "##ader": 1418,
      "leader": 1419,
      "force": 1420,
      "failure": 1421,
      "containers": 1422,
      "##ence": 1423,
      "version": 1424,
      "pend": 1425,
      "pending": 1426,
      "apu": 1427,
      "class": 1428,
      "general": 1429,
      "##ved": 1430,
      "special": 1431,
      "oc": 1432,
      "speculator": 1433,
      "##pert": 1434,
      "rem": 1435,
      "propert": 1436,
      "properties": 1437,
      "##igh": 1438,
      "sid": 1439,
      "internal": 1440,
      "##ote": 1441,
      "scheduling": 1442,
      "remote": 1443,
      "mk": 1444,
      "expected": 1445,
      "pes": 1446,
      "sequence": 1447,
      "testing": 1448,
      "##itor": 1449,
      "monitor": 1450,
      "fce": 1451,
      "but": 1452,
      "##elo": 1453,
      "develo": 1454,
      "develop": 1455,
      "fcc": 1456,
      "resolver": 1457,
      "resolved": 1458,
      "blocked": 1459,
      "dat": 1460,
      "using": 1461,
      "##og": 1462,
      "goog": 1463,
      "google": 1464,
      "nodes": 1465,
      "##mar": 1466,
      "contre": 1467,
      "disk": 1468,
      "domains": 1469,
      "##ind": 1470,
      "targeting": 1471,
      "ste": 1472,
      "if": 1473,
      "bri": 1474,
      "brian": 1475,
      "fn": 1476,
      "##eline": 1477,
      "##pts": 1478,
      "back": 1479,
      "scri": 1480,
      "scripts": 1481,
      "prot": 1482,
      "base": 1483,
      "baseline": 1484,
      "accept": 1485,
      "steering": 1486,
      "##chmar": 1487,
      "benchmar": 1488,
      "benchmark": 1489,
      "stud": 1490,
      "study": 1491,
      "gp": 1492,
      "##itial": 1493,
      "nav": 1494,
      "##aril": 1495,
      "temporaril": 1496,
      "temporarily": 1497,
      "pw": 1498,
      "established": 1499,
      "accepted": 1500,
      "fields": 1501,
      "##ential": 1502,
      "sequential": 1503,
      "##oc": 1504,
      "##is": 1505,
      "protoc": 1506,
      "protocol": 1507,
      "##ap": 1508,
      "efb": 1509,
      "establish": 1510,
      "its": 1511,
      "launch": 1512,
      "too": 1513,
      "runs": 1514,
      "##iated": 1515,
      "dn": 1516,
      "eff": 1517,
      "##urity": 1518,
      "security": 1519,
      "##pped": 1520,
      "rs": 1521,
      "##iam": 1522,
      "william": 1523,
      "williams": 1524,
      "ide": 1525,
      "ident": 1526,
      "exceeded": 1527,
      "##got": 1528,
      "negot": 1529,
      "##fore": 1530,
      "negotiated": 1531,
      "zer": 1532,
      "before": 1533,
      "zero": 1534,
      "mr": 1535,
      "unass": 1536,
      "unassigned": 1537,
      "deprec": 1538,
      "dropped": 1539,
      "notification": 1540,
      "iq": 1541,
      "fast": 1542,
      "which": 1543,
      "merge": 1544,
      "activating": 1545,
      "processed": 1546,
      "##down": 1547,
      "shutdown": 1548,
      "management": 1549,
      "termination": 1550,
      "cable": 1551,
      "content": 1552,
      "cdc": 1553,
      "track": 1554,
      "access": 1555,
      "tracker": 1556,
      "expiring": 1557,
      "cfs": 1558,
      "##ully": 1559,
      "successfully": 1560,
      "sn": 1561,
      "##act": 1562,
      "##ac": 1563,
      "count": 1564,
      "drop": 1565,
      "reader": 1566,
      "fcd": 1567,
      "big": 1568,
      "hang": 1569,
      "pow": 1570,
      "##ow": 1571,
      "fbc": 1572,
      "##els": 1573,
      "tw": 1574,
      "jul": 1575,
      "device": 1576,
      "ter": 1577,
      "tru": 1578,
      "started": 1579,
      "contention": 1580,
      "gun": 1581,
      "nels": 1582,
      "loader": 1583,
      "speculate": 1584,
      "assertion": 1585,
      "##ual": 1586,
      "dg": 1587,
      "dgb": 1588,
      "ww": 1589,
      "actual": 1590,
      "backup": 1591,
      "scheduler": 1592,
      "snap": 1593,
      "em": 1594,
      "##pty": 1595,
      "empty": 1596,
      "merger": 1597,
      "lang": 1598,
      "##gment": 1599,
      "segment": 1600,
      "segments": 1601,
      "jobim": 1602,
      "mill": 1603,
      "power": 1604,
      "ede": 1605,
      "rest": 1606,
      "initial": 1607,
      "bug": 1608,
      "any": 1609,
      "does": 1610,
      "##ng": 1611,
      "##long": 1612,
      "belong": 1613,
      "##iseconds": 1614,
      "milliseconds": 1615,
      "hel": 1616,
      "hello": 1617,
      "##shot": 1618,
      "snapshot": 1619,
      "executing": 1620,
      "cnt": 1621,
      "cbc": 1622,
      "cee": 1623,
      "lib": 1624,
      "dsm": 1625,
      "stag": 1626,
      "ffa": 1627,
      "staging": 1628,
      "ace": 1629,
      "controller": 1630,
      "fcb": 1631,
      "hal": 1632,
      "halt": 1633,
      "ligh": 1634,
      "light": 1635,
      "fin": 1636,
      "cab": 1637,
      "final": 1638,
      "contact": 1639,
      "##orted": 1640,
      "##ush": 1641,
      "flush": 1642,
      "ob": 1643,
      "bac": 1644,
      "dam": 1645,
      "##aus": 1646,
      "psu": 1647,
      "becaus": 1648,
      "because": 1649,
      "##ux": 1650,
      "linux": 1651,
      "ced": 1652,
      "ccd": 1653,
      "##ired": 1654,
      "required": 1655,
      "sleeping": 1656,
      "ffc": 1657,
      "##ling": 1658,
      "true": 1659,
      "killed": 1660,
      "tokens": 1661,
      "##ject": 1662,
      "object": 1663,
      "dda": 1664,
      "cfd": 1665,
      "bus": 1666,
      "edf": 1667,
      "dae": 1668,
      "##vir": 1669,
      "##onment": 1670,
      "envir": 1671,
      "environment": 1672,
      "than": 1673,
      "##out": 1674,
      "fri": 1675,
      "tv": 1676,
      "comms": 1677,
      "##ater": 1678,
      "##verse": 1679,
      "greater": 1680,
      "reverse": 1681,
      "fix": 1682,
      "##icy": 1683,
      "policy": 1684,
      "fixed": 1685,
      "nk": 1686,
      "ffb": 1687,
      "launching": 1688,
      "busy": 1689,
      "cpe": 1690,
      "fold": 1691,
      "##mp": 1692,
      "##ffer": 1693,
      "buffer": 1694,
      "ret": 1695,
      "cabot": 1696,
      "logger": 1697,
      "afc": 1698,
      "high": 1699,
      "ln": 1700,
      "kind": 1701,
      "rele": 1702,
      "giv": 1703,
      "##ows": 1704,
      "retur": 1705,
      "unable": 1706,
      "given": 1707,
      "ag": 1708,
      "##lit": 1709,
      "split": 1710,
      "##ging": 1711,
      "now": 1712,
      "ccc": 1713,
      "##iod": 1714,
      "period": 1715,
      "second": 1716,
      "cac": 1717,
      "##aring": 1718,
      "sparing": 1719,
      "performing": 1720,
      "successful": 1721,
      "simp": 1722,
      "simple": 1723,
      "aac": 1724,
      "loaded": 1725,
      "##ke": 1726,
      "resources": 1727,
      "##ier": 1728,
      "deprecated": 1729,
      "deprecation": 1730,
      "known": 1731,
      "runt": 1732,
      "release": 1733,
      "return": 1734,
      "runtime": 1735,
      "killing": 1736,
      "ffe": 1737,
      "##no": 1738,
      "##ifier": 1739,
      "glo": 1740,
      "returned": 1741,
      "glob": 1742,
      "identifier": 1743,
      "last": 1744,
      "diag": 1745,
      "diagno": 1746,
      "##stics": 1747,
      "diagnostics": 1748,
      "wind": 1749,
      "windows": 1750,
      "again": 1751,
      "asked": 1752,
      "##ib": 1753,
      "currently": 1754,
      "calculator": 1755,
      "supported": 1756,
      "##ctor": 1757,
      "report": 1758,
      "sock": 1759,
      "colle": 1760,
      "qq": 1761,
      "##si": 1762,
      "committ": 1763,
      "collector": 1764,
      "restart": 1765,
      "inc": 1766,
      "dup": 1767,
      "round": 1768,
      "##ons": 1769,
      "scsi": 1770,
      "wwi": 1771,
      "incons": 1772,
      "inconsist": 1773,
      "merging": 1774,
      "sets": 1775,
      "inconsistent": 1776,
      "fda": 1777,
      "kub": 1778,
      "##ota": 1779,
      "initializ": 1780,
      "kubota": 1781,
      "ppc": 1782,
      "train": 1783,
      "fil": 1784,
      "yes": 1785,
      "apc": 1786,
      "les": 1787,
      "committing": 1788,
      "##ong": 1789,
      "strong": 1790,
      "gou": 1791,
      "sin": 1792,
      "fal": 1793,
      "false": 1794,
      "fetching": 1795,
      "causing": 1796,
      "fre": 1797,
      "freed": 1798,
      "##ter": 1799,
      "sci": 1800,
      "tasks": 1801,
      "left": 1802,
      "initializing": 1803,
      "dad": 1804,
      "hub": 1805,
      "##idu": 1806,
      "look": 1807,
      "chat": 1808,
      "baidu": 1809,
      "looking": 1810,
      "unin": 1811,
      "##itialized": 1812,
      "uninitialized": 1813,
      "fec": 1814,
      "eee": 1815,
      "www": 1816,
      "nov": 1817,
      "web": 1818,
      "fbe": 1819,
      "eec": 1820,
      "filter": 1821,
      "pass": 1822,
      "shuffling": 1823,
      "since": 1824,
      "sorted": 1825,
      "global": 1826,
      "about": 1827,
      "being": 1828,
      "zx": 1829,
      "cons": 1830,
      "registering": 1831,
      "page": 1832,
      "##ible": 1833,
      "cham": 1834,
      "##led": 1835,
      "ack": 1836,
      "##now": 1837,
      "##gement": 1838,
      "##cent": 1839,
      "percent": 1840,
      "fba": 1841,
      "##ledgement": 1842,
      "acknow": 1843,
      "acknowledgement": 1844,
      "##cated": 1845,
      "still": 1846,
      "allocated": 1847,
      "##onix": 1848,
      "restarting": 1849,
      "chamonix": 1850,
      "outputs": 1851,
      "ffffc": 1852,
      "##ye": 1853,
      "##bye": 1854,
      "goodbye": 1855,
      "pst": 1856,
      "this": 1857,
      "want": 1858,
      "training": 1859,
      "wanted": 1860,
      "abort": 1861,
      "contin": 1862,
      "##ack": 1863,
      "##gro": 1864,
      "backgro": 1865,
      "background": 1866,
      "##ues": 1867,
      "##sent": 1868,
      "accessible": 1869,
      "hack": 1870,
      "mi": 1871,
      "var": 1872,
      "url": 1873,
      "present": 1874,
      "cae": 1875,
      "jar": 1876,
      "fdd": 1877,
      "values": 1878,
      "due": 1879,
      "tc": 1880,
      "abc": 1881,
      "ddd": 1882,
      "qb": 1883,
      "gen": 1884,
      "lu": 1885,
      "resta": 1886,
      "nova": 1887,
      "mira": 1888,
      "luke": 1889,
      "adv": 1890,
      "fer": 1891,
      "kap": 1892,
      "sam": 1893,
      "##licate": 1894,
      "##onical": 1895,
      "mapping": 1896,
      "logical": 1897,
      "ffd": 1898,
      "rai": 1899,
      "canonical": 1900,
      "duplicate": 1901,
      "##ive": 1902,
      "next": 1903,
      "##pr": 1904,
      "##print": 1905,
      "noprint": 1906,
      "assign": 1907,
      "hash": 1908,
      "allocation": 1909,
      "assigning": 1910,
      "contacting": 1911,
      "mail": 1912,
      "clients": 1913,
      "ecac": 1914,
      "epo": 1915,
      "epoch": 1916,
      "tur": 1917,
      "complete": 1918,
      "##ncat": 1919,
      "##mme": 1920,
      "homme": 1921,
      "bfd": 1922,
      "truncat": 1923,
      "truncate": 1924,
      "ddf": 1925,
      "bay": 1926,
      "mort": 1927,
      "ah": 1928,
      "ahn": 1929,
      "eed": 1930,
      "me": 1931,
      "eedc": 1932,
      "os": 1933,
      "cj": 1934,
      "cbb": 1935,
      "od": 1936,
      "cbd": 1937,
      "stir": 1938,
      "aad": 1939,
      "aa": 1940,
      "ij": 1941,
      "ul": 1942,
      "##rike": 1943,
      "blue": 1944,
      "ulrike": 1945,
      "mund": 1946,
      "mundy": 1947,
      "acc": 1948,
      "zy": 1949,
      "##uation": 1950,
      "continuation": 1951,
      "yod": 1952,
      "##edi": 1953,
      "odi": 1954,
      "yoda": 1955,
      "##box": 1956,
      "feb": 1957,
      "mailbox": 1958,
      "##ermedi": 1959,
      "intermedi": 1960,
      "intermediate": 1961,
      "bae": 1962,
      "sun": 1963,
      "cfc": 1964,
      "ada": 1965,
      "share": 1966,
      "fde": 1967,
      "##ped": 1968,
      "sho": 1969,
      "stopped": 1970,
      "ta": 1971,
      "many": 1972,
      "ebb": 1973,
      "adding": 1974,
      "receive": 1975,
      "handling": 1976,
      "##isting": 1977,
      "latched": 1978,
      "memb": 1979,
      "member": 1980,
      "fm": 1981,
      "hommes": 1982,
      "##ative": 1983,
      "uber": 1984,
      "xm": 1985,
      "xml": 1986,
      "going": 1987,
      "couldn": 1988,
      "med": 1989,
      "ix": 1990,
      "ref": 1991,
      "##pture": 1992,
      "capture": 1993,
      "mult": 1994,
      "cloud": 1995,
      "cea": 1996,
      "prof": 1997,
      "##ick": 1998,
      "adc": 1999,
      "acf": 2000,
      "hu": 2001,
      "rout": 2002,
      "eaf": 2003,
      "fir": 2004,
      "first": 2005,
      "aaa": 2006,
      "aborted": 2007,
      "dab": 2008,
      "pf": 2009,
      "speculative": 2010,
      "shock": 2011,
      "aec": 2012,
      "eth": 2013,
      "usable": 2014,
      "see": 2015,
      "setup": 2016,
      "processes": 2017,
      "dac": 2018,
      "plus": 2019,
      "afb": 2020,
      "##ivated": 2021,
      "deact": 2022,
      "deactivated": 2023,
      "cad": 2024,
      "packets": 2025,
      "caf": 2026,
      "##ough": 2027,
      "##ernet": 2028,
      "enough": 2029,
      "ethernet": 2030,
      "zz": 2031,
      "##ole": 2032,
      "bank": 2033,
      "console": 2034,
      "minus": 2035,
      "sk": 2036,
      "##ider": 2037,
      "existing": 2038,
      "replac": 2039,
      "consider": 2040,
      "seek": 2041,
      "replacing": 2042,
      "cbe": 2043,
      "div": 2044,
      "party": 2045,
      "pic": 2046,
      "ping": 2047,
      "##deo": 2048,
      "normalized": 2049,
      "video": 2050,
      "vm": 2051,
      "##flow": 2052,
      "apis": 2053,
      "##cib": 2054,
      "forcib": 2055,
      "forcibly": 2056,
      "cdb": 2057,
      "ni": 2058,
      "utils": 2059,
      "fed": 2060,
      "##be": 2061,
      "path": 2062,
      "##ron": 2063,
      "cca": 2064,
      "speculating": 2065,
      "mno": 2066,
      "pb": 2067,
      "fffd": 2068,
      "mil": 2069,
      "miller": 2070,
      "launched": 2071,
      "click": 2072,
      "ffbf": 2073,
      "sg": 2074,
      "##iple": 2075,
      "multiple": 2076,
      "steer": 2077,
      "dee": 2078,
      "##ations": 2079,
      "symbols": 2080,
      "bbb": 2081,
      "speculations": 2082,
      "gene": 2083,
      "dr": 2084,
      "cbbc": 2085,
      "upon": 2086,
      "performed": 2087,
      "xd": 2088,
      "aut": 2089,
      "eae": 2090,
      "wires": 2091,
      "##ay": 2092,
      "fac": 2093,
      "##cu": 2094,
      "xb": 2095,
      "one": 2096,
      "find": 2097,
      "threw": 2098,
      "following": 2099,
      "tool": 2100,
      "off": 2101,
      "edc": 2102,
      "saf": 2103,
      "adf": 2104,
      "acd": 2105,
      "cur": 2106,
      "logs": 2107,
      "adb": 2108,
      "conn": 2109,
      "inex": 2110,
      "notif": 2111,
      "inexact": 2112,
      "##alk": 2113,
      "img": 2114,
      "cda": 2115,
      "timer": 2116,
      "lf": 2117,
      "##ward": 2118,
      "iss": 2119,
      "blocks": 2120,
      "yo": 2121,
      "##inity": 2122,
      "communicating": 2123,
      "infinity": 2124,
      "toward": 2125,
      "eca": 2126,
      "el": 2127,
      "follower": 2128,
      "auto": 2129,
      "dcd": 2130,
      "##ech": 2131,
      "jet": 2132,
      "ng": 2133,
      "jetty": 2134,
      "he": 2135,
      "wed": 2136,
      "seti": 2137,
      "br": 2138,
      "bert": 2139,
      "##sch": 2140,
      "mailboxes": 2141,
      "bertsch": 2142,
      "finish": 2143,
      "talk": 2144,
      "times": 2145,
      "pu": 2146,
      "refre": 2147,
      "continue": 2148,
      "sram": 2149,
      "you": 2150,
      "other": 2151,
      "##uing": 2152,
      "issuing": 2153,
      "ceb": 2154,
      "play": 2155,
      "rom": 2156,
      "micron": 2157,
      "##tech": 2158,
      "caltech": 2159,
      "ik": 2160,
      "##uo": 2161,
      "pica": 2162,
      "ikuo": 2163,
      "faa": 2164,
      "dao": 2165,
      "##ext": 2166,
      "ecf": 2167,
      "aba": 2168,
      "pin": 2169,
      "ram": 2170,
      "##yin": 2171,
      "pinyin": 2172,
      "tence": 2173,
      "services": 2174,
      "tencent": 2175,
      "bol": 2176,
      "bolt": 2177,
      "sm": 2178,
      "yd": 2179,
      "router": 2180,
      "reconnect": 2181,
      "bee": 2182,
      "afa": 2183,
      "##ers": 2184,
      "bce": 2185,
      "imt": 2186,
      "bla": 2187,
      "loe": 2188,
      "##ype": 2189,
      "skype": 2190,
      "plug": 2191,
      "##fox": 2192,
      "##refox": 2193,
      "firefox": 2194,
      "factor": 2195,
      "route": 2196,
      "##ell": 2197,
      "shell": 2198,
      "appall": 2199,
      "concu": 2200,
      "##artbe": 2201,
      "safe": 2202,
      "heartbe": 2203,
      "concurrent": 2204,
      "heartbeat": 2205,
      "bp": 2206,
      "cde": 2207,
      "fad": 2208,
      "##iver": 2209,
      "context": 2210,
      "long": 2211,
      "refresh": 2212,
      "##ached": 2213,
      "exit": 2214,
      "caa": 2215,
      "abd": 2216,
      "fra": 2217,
      "acb": 2218,
      "tcp": 2219,
      "diva": 2220,
      "fraction": 2221,
      "ke": 2222,
      "serial": 2223,
      "neigh": 2224,
      "create": 2225,
      "mg": 2226,
      "reit": 2227,
      "failing": 2228,
      "overflow": 2229,
      "neighb": 2230,
      "reitz": 2231,
      "hm": 2232,
      "##ckl": 2233,
      "blackl": 2234,
      "te": 2235,
      "nan": 2236,
      "purge": 2237,
      "pri": 2238,
      "replication": 2239,
      "##cel": 2240,
      "##ide": 2241,
      "recover": 2242,
      "cancel": 2243,
      "divide": 2244,
      "curio": 2245,
      "und": 2246,
      "valid": 2247,
      "small": 2248,
      "prior": 2249,
      "canceled": 2250,
      "blocking": 2251,
      "cba": 2252,
      "under": 2253,
      "restarted": 2254,
      "underflow": 2255,
      "ever": 2256,
      "##jor": 2257,
      "major": 2258,
      "note": 2259,
      "eda": 2260,
      "ebc": 2261,
      "gn": 2262,
      "vl": 2263,
      "yun": 2264,
      "linked": 2265,
      "gnu": 2266,
      "tad": 2267,
      "sic": 2268,
      "baa": 2269,
      "channels": 2270,
      "driver": 2271,
      "elf": 2272,
      "ece": 2273,
      "av": 2274,
      "dl": 2275,
      "##ret": 2276,
      "secret": 2277,
      "leading": 2278,
      "created": 2279,
      "hot": 2280,
      "fo": 2281,
      "tet": 2282,
      "const": 2283,
      "##obar": 2284,
      "failures": 2285,
      "foobar": 2286,
      "sq": 2287,
      "vel": 2288,
      "pap": 2289,
      "workers": 2290,
      "ender": 2291,
      "param": 2292,
      "detail": 2293,
      "paramet": 2294,
      "cs": 2295,
      "##set": 2296,
      "parall": 2297,
      "offset": 2298,
      "parameters": 2299,
      "parallel": 2300,
      "gm": 2301,
      "col": 2302,
      "ffffe": 2303,
      "ly": 2304,
      "vendor": 2305,
      "xe": 2306,
      "amd": 2307,
      "coll": 2308,
      "aed": 2309,
      "dic": 2310,
      "ar": 2311,
      "aca": 2312,
      "exited": 2313,
      "ten": 2314,
      "preempt": 2315,
      "skip": 2316,
      "gram": 2317,
      "##anding": 2318,
      "that": 2319,
      "lack": 2320,
      "##ave": 2321,
      "grammar": 2322,
      "dfb": 2323,
      "notify": 2324,
      "notified": 2325,
      "qx": 2326,
      "##standing": 2327,
      "subs": 2328,
      "outstanding": 2329,
      "build": 2330,
      "recovering": 2331,
      "ara": 2332,
      "agent": 2333,
      "ie": 2334,
      "##go": 2335,
      "may": 2336,
      "calling": 2337,
      "dbb": 2338,
      "lego": 2339,
      "afd": 2340,
      "##used": 2341,
      "writer": 2342,
      "refused": 2343,
      "connected": 2344,
      "put": 2345,
      "mods": 2346,
      "obs": 2347,
      "pop": 2348,
      "##ize": 2349,
      "##ete": 2350,
      "ads": 2351,
      "##ract": 2352,
      "##olete": 2353,
      "startup": 2354,
      "bda": 2355,
      "fbec": 2356,
      "obsolete": 2357,
      "pj": 2358,
      "ls": 2359,
      "##ermine": 2360,
      "determine": 2361,
      "copied": 2362,
      "drams": 2363,
      "blas": 2364,
      "cart": 2365,
      "mis": 2366,
      "##atar": 2367,
      "moved": 2368,
      "cfa": 2369,
      "avatar": 2370,
      "pjm": 2371,
      "copying": 2372,
      "day": 2373,
      "bo": 2374,
      "gh": 2375,
      "ign": 2376,
      "ebf": 2377,
      "ignor": 2378,
      "lh": 2379,
      "kerns": 2380,
      "setting": 2381,
      "##abit": 2382,
      "gigabit": 2383,
      "char": 2384,
      "papi": 2385,
      "gmt": 2386,
      "##register": 2387,
      "unregister": 2388,
      "sqr": 2389,
      "unregistered": 2390,
      "rpc": 2391,
      "aaf": 2392,
      "multi": 2393,
      "kn": 2394,
      "##ve": 2395,
      "commands": 2396,
      "##itten": 2397,
      "written": 2398,
      "wei": 2399,
      "filet": 2400,
      "cases": 2401,
      "live": 2402,
      "sr": 2403,
      "##ker": 2404,
      "reception": 2405,
      "doe": 2406,
      "feff": 2407,
      "baker": 2408,
      "csd": 2409,
      "##lver": 2410,
      "solver": 2411,
      "linear": 2412,
      "ignoring": 2413,
      "solvers": 2414,
      "zh": 2415,
      "##arest": 2416,
      "nearest": 2417,
      "lev": 2418,
      "fab": 2419,
      "lost": 2420,
      "faf": 2421,
      "ffba": 2422,
      "plugged": 2423,
      "vt": 2424,
      "##pping": 2425,
      "##amp": 2426,
      "getting": 2427,
      "key": 2428,
      "neighbor": 2429,
      "##ai": 2430,
      "pager": 2431,
      "cap": 2432,
      "pagerank": 2433,
      "ll": 2434,
      "tick": 2435,
      "pool": 2436,
      "bind": 2437,
      "software": 2438,
      "sinai": 2439,
      "##sing": 2440,
      "##stamp": 2441,
      "##onse": 2442,
      "response": 2443,
      "timestamp": 2444,
      "ipad": 2445,
      "resolve": 2446,
      "factories": 2447,
      "emitt": 2448,
      "##wsing": 2449,
      "##line": 2450,
      "##ension": 2451,
      "timeline": 2452,
      "common": 2453,
      "ffdf": 2454,
      "browsing": 2455,
      "extension": 2456,
      "details": 2457,
      "emitting": 2458,
      "rows": 2459,
      "ve": 2460,
      "xor": 2461,
      "##ined": 2462,
      "crc": 2463,
      "modules": 2464,
      "unus": 2465,
      "requests": 2466,
      "controlling": 2467,
      "defined": 2468,
      "zhi": 2469,
      "unusable": 2470,
      "iee": 2471,
      "##iet": 2472,
      "##rred": 2473,
      "##ite": 2474,
      "quiet": 2475,
      "connector": 2476,
      "logging": 2477,
      "closing": 2478,
      "occu": 2479,
      "ieee": 2480,
      "occurred": 2481,
      "bed": 2482,
      "es": 2483,
      "rize": 2484,
      "ube": 2485,
      "##pter": 2486,
      "dob": 2487,
      "fps": 2488,
      "wiz": 2489,
      "adapter": 2490,
      "plugin": 2491,
      "##emer": 2492,
      "bdb": 2493,
      "abb": 2494,
      "committed": 2495,
      "bremer": 2496,
      "cached": 2497,
      "ent": 2498,
      "fon": 2499,
      "ws": 2500,
      "##erved": 2501,
      "##ety": 2502,
      "reg": 2503,
      "reached": 2504,
      "##oting": 2505,
      "instant": 2506,
      "##ability": 2507,
      "proxies": 2508,
      "quoting": 2509,
      "reserved": 2510,
      "connecting": 2511,
      "managers": 2512,
      "extract": 2513,
      "rounded": 2514,
      "safety": 2515,
      "blacklist": 2516,
      "blacklisting": 2517,
      "avatars": 2518,
      "capability": 2519,
      "fonts": 2520,
      "aab": 2521,
      "much": 2522,
      "zing": 2523,
      "##ination": 2524,
      "##stination": 2525,
      "destination": 2526,
      "users": 2527,
      "nez": 2528,
      "##umer": 2529,
      "install": 2530,
      "releas": 2531,
      "consumer": 2532,
      "tau": 2533,
      "instantiated": 2534,
      "bound": 2535,
      "##vi": 2536,
      "called": 2537,
      "dbs": 2538,
      "thund": 2539,
      "etc": 2540,
      "thunder": 2541,
      "ice": 2542,
      "registered": 2543,
      "ld": 2544,
      "##tics": 2545,
      "##ytics": 2546,
      "##alytics": 2547,
      "upper": 2548,
      "suite": 2549,
      "analytics": 2550,
      "splits": 2551,
      "putting": 2552,
      "pub": 2553,
      "ting": 2554,
      "##ame": 2555,
      "recent": 2556,
      "bdd": 2557,
      "##vision": 2558,
      "dbe": 2559,
      "gooding": 2560,
      "ldp": 2561,
      "took": 2562,
      "##ify": 2563,
      "changing": 2564,
      "lap": 2565,
      "syndication": 2566,
      "stats": 2567,
      "record": 2568,
      "notifications": 2569,
      "cccc": 2570,
      "keys": 2571,
      "released": 2572,
      "##our": 2573,
      "meta": 2574,
      "neighbour": 2575,
      "rl": 2576,
      "td": 2577,
      "top": 2578,
      "sending": 2579,
      "ffdb": 2580,
      "should": 2581,
      "profile": 2582,
      "validating": 2583,
      "pc": 2584,
      "##bo": 2585,
      "diff": 2586,
      "configure": 2587,
      "bel": 2588,
      "cfb": 2589,
      "returning": 2590,
      "mh": 2591,
      "ru": 2592,
      "sl": 2593,
      "srm": 2594,
      "bca": 2595,
      "daa": 2596,
      "records": 2597,
      "rupe": 2598,
      "slave": 2599,
      "cff": 2600,
      "face": 2601,
      "gy": 2602,
      "scat": 2603,
      "vc": 2604,
      "##gg": 2605,
      "cef": 2606,
      "##ssible": 2607,
      "provision": 2608,
      "possible": 2609,
      "sugg": 2610,
      "verify": 2611,
      "##estion": 2612,
      "streamer": 2613,
      "checker": 2614,
      "caca": 2615,
      "counter": 2616,
      "ello": 2617,
      "level": 2618,
      "scatter": 2619,
      "suggestion": 2620,
      "ian": 2621,
      "##wed": 2622,
      "##ges": 2623,
      "pages": 2624,
      "allowed": 2625,
      "soon": 2626,
      "##ally": 2627,
      "gi": 2628,
      "lag": 2629,
      "mw": 2630,
      "pad": 2631,
      "pos": 2632,
      "law": 2633,
      "synchron": 2634,
      "super": 2635,
      "portion": 2636,
      "cleanly": 2637,
      "stepping": 2638,
      "finishing": 2639,
      "ded": 2640,
      "eo": 2641,
      "have": 2642,
      "mas": 2643,
      "mes": 2644,
      "yout": 2645,
      "##ories": 2646,
      "##ube": 2647,
      "disc": 2648,
      "directories": 2649,
      "fetches": 2650,
      "mgm": 2651,
      "subsystem": 2652,
      "meso": 2653,
      "youtube": 2654,
      "bab": 2655,
      "cach": 2656,
      "cri": 2657,
      "propo": 2658,
      "trapped": 2659,
      "tagging": 2660,
      "flushing": 2661,
      "teo": 2662,
      "caching": 2663,
      "propos": 2664,
      "gg": 2665,
      "js": 2666,
      "trm": 2667,
      "heh": 2668,
      "proposed": 2669,
      "hi": 2670,
      "ui": 2671,
      "cece": 2672,
      "initialization": 2673,
      "hid": 2674,
      "sav": 2675,
      "##she": 2676,
      "##den": 2677,
      "generic": 2678,
      "exch": 2679,
      "when": 2680,
      "##count": 2681,
      "result": 2682,
      "ready": 2683,
      "account": 2684,
      "writing": 2685,
      "turn": 2686,
      "refreshe": 2687,
      "hidden": 2688,
      "saved": 2689,
      "exchang": 2690,
      "refreshes": 2691,
      "csi": 2692,
      "dp": 2693,
      "gate": 2694,
      "pull": 2695,
      "##rary": 2696,
      "##ore": 2697,
      "excess": 2698,
      "remaining": 2699,
      "flag": 2700,
      "packages": 2701,
      "library": 2702,
      "excessive": 2703,
      "pe": 2704,
      "##gre": 2705,
      "##gation": 2706,
      "stro": 2707,
      "##ople": 2708,
      "quant": 2709,
      "waited": 2710,
      "problems": 2711,
      "##elsen": 2712,
      "aggre": 2713,
      "nielsen": 2714,
      "detailed": 2715,
      "exchange": 2716,
      "people": 2717,
      "strobe": 2718,
      "aggregation": 2719,
      "##oo": 2720,
      "##bat": 2721,
      "##log": 2722,
      "##robat": 2723,
      "##idge": 2724,
      "ali": 2725,
      "##ilt": 2726,
      "acrobat": 2727,
      "built": 2728,
      "bridge": 2729,
      "dmp": 2730,
      "more": 2731,
      "ue": 2732,
      "sim": 2733,
      "flagging": 2734,
      "keeper": 2735,
      "pid": 2736,
      "qd": 2737,
      "##norm": 2738,
      "##ser": 2739,
      "##vio": 2740,
      "inn": 2741,
      "parser": 2742,
      "previo": 2743,
      "abnorm": 2744,
      "protect": 2745,
      "lsa": 2746,
      "binding": 2747,
      "masa": 2748,
      "previous": 2749,
      "abnormally": 2750,
      "qs": 2751,
      "##rror": 2752,
      "verbo": 2753,
      "how": 2754,
      "mirror": 2755,
      "synchroniz": 2756,
      "verbose": 2757,
      "dk": 2758,
      "kg": 2759,
      "##hod": 2760,
      "recovery": 2761,
      "##oration": 2762,
      "orac": 2763,
      "##iler": 2764,
      "compiler": 2765,
      "resets": 2766,
      "corporation": 2767,
      "secure": 2768,
      "method": 2769,
      "retain": 2770,
      "hua": 2771,
      "arch": 2772,
      "beln": 2773,
      "accounts": 2774,
      "synchronizing": 2775,
      "oracle": 2776,
      "ale": 2777,
      "gro": 2778,
      "mar": 2779,
      "went": 2780,
      "##load": 2781,
      "delay": 2782,
      "chass": 2783,
      "zoo": 2784,
      "chassis": 2785,
      "hh": 2786,
      "rce": 2787,
      "dfd": 2788,
      "##oning": 2789,
      "##andoning": 2790,
      "usage": 2791,
      "##ular": 2792,
      "lock": 2793,
      "edge": 2794,
      "quorums": 2795,
      "abandoning": 2796,
      "defaulting": 2797,
      "finder": 2798,
      "majority": 2799,
      "regular": 2800,
      "cw": 2801,
      "tx": 2802,
      "text": 2803,
      "ya": 2804,
      "##hoo": 2805,
      "inco": 2806,
      "cli": 2807,
      "##lete": 2808,
      "rename": 2809,
      "hangout": 2810,
      "##mplete": 2811,
      "constru": 2812,
      "yahoo": 2813,
      "incomplete": 2814,
      "hangouts": 2815,
      "own": 2816,
      "qh": 2817,
      "uc": 2818,
      "vic": 2819,
      "##ument": 2820,
      "##ps": 2821,
      "##ie": 2822,
      "##gument": 2823,
      "##ets": 2824,
      "dead": 2825,
      "serve": 2826,
      "assets": 2827,
      "argument": 2828,
      "vicar": 2829,
      "qe": 2830,
      "##stract": 2831,
      "nos": 2832,
      "stuff": 2833,
      "loop": 2834,
      "abstract": 2835,
      "sql": 2836,
      "aafc": 2837,
      "entity": 2838,
      "ucd": 2839,
      "bs": 2840,
      "og": 2841,
      "pk": 2842,
      "rps": 2843,
      "##ry": 2844,
      "flop": 2845,
      "view": 2846,
      "counters": 2847,
      "bt": 2848,
      "batch": 2849,
      "ns": 2850,
      "##cl": 2851,
      "adob": 2852,
      "topo": 2853,
      "excl": 2854,
      "##ille": 2855,
      "cook": 2856,
      "beck": 2857,
      "bcf": 2858,
      "##seille": 2859,
      "finis": 2860,
      "priority": 2861,
      "entry": 2862,
      "marseille": 2863,
      "adobe": 2864,
      "topolog": 2865,
      "cookie": 2866,
      "bates": 2867,
      "fron": 2868,
      "ts": 2869,
      "ntp": 2870,
      "##uding": 2871,
      "mook": 2872,
      "bef": 2873,
      "eng": 2874,
      "bcd": 2875,
      "acceptance": 2876,
      "team": 2877,
      "viewer": 2878,
      "excluding": 2879,
      "front": 2880,
      "ftp": 2881,
      "##lect": 2882,
      "float": 2883,
      "##onnected": 2884,
      "pixel": 2885,
      "download": 2886,
      "disconnected": 2887,
      "group": 2888,
      "engine": 2889,
      "bm": 2890,
      "native": 2891,
      "ran": 2892,
      "##ki": 2893,
      "exist": 2894,
      "cade": 2895,
      "wiki": 2896,
      "socks": 2897,
      "issues": 2898,
      "bmc": 2899,
      "dum": 2900,
      "lm": 2901,
      "rr": 2902,
      "rk": 2903,
      "sch": 2904,
      "##ia": 2905,
      "stp": 2906,
      "ddb": 2907,
      "fade": 2908,
      "support": 2909,
      "writable": 2910,
      "dns": 2911,
      "give": 2912,
      "dump": 2913,
      "aw": 2914,
      "aged": 2915,
      "age": 2916,
      "ich": 2917,
      "pv": 2918,
      "rule": 2919,
      "xue": 2920,
      "##ns": 2921,
      "##cens": 2922,
      "adze": 2923,
      "comment": 2924,
      "imp": 2925,
      "shu": 2926,
      "licens": 2927,
      "reflect": 2928,
      "cafe": 2929,
      "##book": 2930,
      "facebook": 2931,
      "licenses": 2932,
      "dj": 2933,
      "ge": 2934,
      "gem": 2935,
      "lg": 2936,
      "ler": 2937,
      "ring": 2938,
      "vd": 2939,
      "walk": 2940,
      "yan": 2941,
      "inact": 2942,
      "refer": 2943,
      "##ceiver": 2944,
      "##aller": 2945,
      "##rap": 2946,
      "trs": 2947,
      "transceiver": 2948,
      "selector": 2949,
      "biz": 2950,
      "dropping": 2951,
      "odr": 2952,
      "auth": 2953,
      "smaller": 2954,
      "lln": 2955,
      "topologies": 2956,
      "exists": 2957,
      "inactive": 2958,
      "reference": 2959,
      "bfff": 2960,
      "gid": 2961,
      "prom": 2962,
      "pip": 2963,
      "tech": 2964,
      "va": 2965,
      "##ulo": 2966,
      "##lime": 2967,
      "##eme": 2968,
      "##ername": 2969,
      "make": 2970,
      "mapper": 2971,
      "sublime": 2972,
      "username": 2973,
      "##cting": 2974,
      "maxage": 2975,
      "modulo": 2976,
      "life": 2977,
      "buffered": 2978,
      "tax": 2979,
      "hui": 2980,
      "lsd": 2981,
      "constructor": 2982,
      "scheme": 2983,
      "pipeline": 2984,
      "best": 2985,
      "ead": 2986,
      "mall": 2987,
      "watch": 2988,
      "##ool": 2989,
      "##rt": 2990,
      "##min": 2991,
      "inv": 2992,
      "##fort": 2993,
      "admin": 2994,
      "stack": 2995,
      "spool": 2996,
      "attach": 2997,
      "try": 2998,
      "effort": 2999,
      "locations": 3000,
      "codes": 3001,
      "asia": 3002,
      "##lay": 3003,
      "basis": 3004,
      "remo": 3005,
      "ffcc": 3006,
      "player": 3007,
      "supporters": 3008,
      "vax": 3009,
      "spools": 3010,
      "bag": 3011,
      "du": 3012,
      "nl": 3013,
      "yue": 3014,
      "##os": 3015,
      "##pid": 3016,
      "##yn": 3017,
      "##az": 3018,
      "##fe": 3019,
      "##arm": 3020,
      "alarm": 3021,
      "gov": 3022,
      "amaz": 3023,
      "feeds": 3024,
      "rapid": 3025,
      "uri": 3026,
      "cbr": 3027,
      "fier": 3028,
      "display": 3029,
      "unexpectedly": 3030,
      "eland": 3031,
      "avro": 3032,
      "gmail": 3033,
      "attachment": 3034,
      "amazon": 3035,
      "blog": 3036,
      "ease": 3037,
      "grap": 3038,
      "lar": 3039,
      "rid": 3040,
      "sar": 3041,
      "table": 3042,
      "ub": 3043,
      "wra": 3044,
      "##dog": 3045,
      "pac": 3046,
      "doctor": 3047,
      "bits": 3048,
      "fefe": 3049,
      "normally": 3050,
      "cmb": 3051,
      "##oke": 3052,
      "commiting": 3053,
      "passport": 3054,
      "trust": 3055,
      "cadd": 3056,
      "tools": 3057,
      "yoo": 3058,
      "constructing": 3059,
      "watchdog": 3060,
      "invoke": 3061,
      "graph": 3062,
      "large": 3063,
      "dyn": 3064,
      "jp": 3065,
      "np": 3066,
      "rf": 3067,
      "##ued": 3068,
      "##sum": 3069,
      "##gress": 3070,
      "reco": 3071,
      "##ots": 3072,
      "checksum": 3073,
      "manu": 3074,
      "changes": 3075,
      "threaded": 3076,
      "shots": 3077,
      "bao": 3078,
      "clog": 3079,
      "queued": 3080,
      "executor": 3081,
      "snmp": 3082,
      "tao": 3083,
      "author": 3084,
      "prompt": 3085,
      "cce": 3086,
      "cpc": 3087,
      "cam": 3088,
      "dm": 3089,
      "eith": 3090,
      "egress": 3091,
      "ft": 3092,
      "hn": 3093,
      "hc": 3094,
      "less": 3095,
      "oct": 3096,
      "qa": 3097,
      "sen": 3098,
      "tin": 3099,
      "wp": 3100,
      "yang": 3101,
      "##gm": 3102,
      "##ered": 3103,
      "corrupt": 3104,
      "dict": 3105,
      "parts": 3106,
      "ori": 3107,
      "uni": 3108,
      "beac": 3109,
      "booting": 3110,
      "creative": 3111,
      "strip": 3112,
      "taca": 3113,
      "drive": 3114,
      "synchronize": 3115,
      "dede": 3116,
      "locks": 3117,
      "rules": 3118,
      "wray": 3119,
      "ccea": 3120,
      "either": 3121,
      "dicta": 3122,
      "beacon": 3123,
      "bh": 3124,
      "bul": 3125,
      "css": 3126,
      "ih": 3127,
      "jun": 3128,
      "kit": 3129,
      "nj": 3130,
      "rat": 3131,
      "tp": 3132,
      "vg": 3133,
      "win": 3134,
      "yb": 3135,
      "##name": 3136,
      "##fact": 3137,
      "##atum": 3138,
      "dfff": 3139,
      "revision": 3140,
      "nano": 3141,
      "upload": 3142,
      "proc": 3143,
      "trapping": 3144,
      "##ird": 3145,
      "sockets": 3146,
      "third": 3147,
      "area": 3148,
      "msg": 3149,
      "fls": 3150,
      "absent": 3151,
      "stratum": 3152,
      "trier": 3153,
      "blp": 3154,
      "hostname": 3155,
      "devices": 3156,
      "ava": 3157,
      "groot": 3158,
      "gemini": 3159,
      "dyna": 3160,
      "manufact": 3161,
      "hne": 3162,
      "bulk": 3163,
      "ratt": 3164,
      "manufacture": 3165,
      "cas": 3166,
      "gt": 3167,
      "lc": 3168,
      "lid": 3169,
      "px": 3170,
      "summer": 3171,
      "##sor": 3172,
      "##bile": 3173,
      "##mmen": 3174,
      "##iginate": 3175,
      "parse": 3176,
      "originate": 3177,
      "giga": 3178,
      "detect": 3179,
      "mobile": 3180,
      "compos": 3181,
      "plain": 3182,
      "fault": 3183,
      "secs": 3184,
      "edef": 3185,
      "xbf": 3186,
      "arp": 3187,
      "entered": 3188,
      "pubs": 3189,
      "pulled": 3190,
      "alea": 3191,
      "removed": 3192,
      "recommen": 3193,
      "sensor": 3194,
      "wpa": 3195,
      "lido": 3196,
      "composite": 3197,
      "recommend": 3198,
      "cat": 3199,
      "dust": 3200,
      "eas": 3201,
      "ear": 3202,
      "fip": 3203,
      "gq": 3204,
      "ha": 3205,
      "kd": 3206,
      "option": 3207,
      "pill": 3208,
      "rd": 3209,
      "sum": 3210,
      "tn": 3211,
      "tj": 3212,
      "vir": 3213,
      "xg": 3214,
      "##tain": 3215,
      "##tual": 3216,
      "##wnst": 3217,
      "##net": 3218,
      "##lator": 3219,
      "##lier": 3220,
      "##boot": 3221,
      "##but": 3222,
      "##mit": 3223,
      "##awn": 3224,
      "##gin": 3225,
      "##atic": 3226,
      "reboot": 3227,
      "##stri": 3228,
      "death": 3229,
      "forty": 3230,
      "distri": 3231,
      "interest": 3232,
      "##ution": 3233,
      "crs": 3234,
      "downst": 3235,
      "spawn": 3236,
      "assignment": 3237,
      "modify": 3238,
      "##istics": 3239,
      "images": 3240,
      "disabled": 3241,
      "seq": 3242,
      "begin": 3243,
      "checking": 3244,
      "then": 3245,
      "leap": 3246,
      "urs": 3247,
      "translator": 3248,
      "transmit": 3249,
      "##shal": 3250,
      "##omatic": 3251,
      "gather": 3252,
      "resolution": 3253,
      "targets": 3254,
      "datum": 3255,
      "proto": 3256,
      "doesn": 3257,
      "ceeb": 3258,
      "obtain": 3259,
      "dada": 3260,
      "automatic": 3261,
      "recoverable": 3262,
      "validate": 3263,
      "aren": 3264,
      "putty": 3265,
      "ignored": 3266,
      "releasing": 3267,
      "marshal": 3268,
      "topology": 3269,
      "detection": 3270,
      "easy": 3271,
      "earlier": 3272,
      "kdc": 3273,
      "virtual": 3274,
      "##buted": 3275,
      "distributed": 3276,
      "downstream": 3277,
      "catch": 3278,
      "cash": 3279,
      "ds": 3280,
      "dsp": 3281,
      "fly": 3282,
      "fgm": 3283,
      "hd": 3284,
      "han": 3285,
      "kc": 3286,
      "lot": 3287,
      "mu": 3288,
      "ning": 3289,
      "qul": 3290,
      "tu": 3291,
      "tm": 3292,
      "tan": 3293,
      "##ric": 3294,
      "##ba": 3295,
      "##ful": 3296,
      "reop": 3297,
      "##ony": 3298,
      "nak": 3299,
      "##eng": 3300,
      "##vert": 3301,
      "##ality": 3302,
      "dex": 3303,
      "forward": 3304,
      "##entication": 3305,
      "dia": 3306,
      "aligned": 3307,
      "errs": 3308,
      "soc": 3309,
      "##xter": 3310,
      "choo": 3311,
      "ene": 3312,
      "logos": 3313,
      "wave": 3314,
      "ccff": 3315,
      "phony": 3316,
      "faff": 3317,
      "ppl": 3318,
      "shi": 3319,
      "baxter": 3320,
      "metric": 3321,
      "ffef": 3322,
      "blast": 3323,
      "rlc": 3324,
      "simba": 3325,
      "authentication": 3326,
      "dma": 3327,
      "winer": 3328,
      "dfffff": 3329,
      "options": 3330,
      "catchup": 3331,
      "quli": 3332,
      "tms": 3333,
      "reopen": 3334,
      "forwarding": 3335,
      "choose": 3336,
      "bj": 3337,
      "cg": 3338,
      "cent": 3339,
      "date": 3340,
      "dsl": 3341,
      "fw": 3342,
      "fro": 3343,
      "feng": 3344,
      "gd": 3345,
      "gs": 3346,
      "gist": 3347,
      "hul": 3348,
      "igm": 3349,
      "kr": 3350,
      "medi": 3351,
      "ql": 3352,
      "rio": 3353,
      "rate": 3354,
      "roc": 3355,
      "sf": 3356,
      "tel": 3357,
      "tus": 3358,
      "wt": 3359,
      "wang": 3360,
      "wee": 3361,
      "xia": 3362,
      "##da": 3363,
      "##ome": 3364,
      "##ner": 3365,
      "##cod": 3366,
      "##son": 3367,
      "##ving": 3368,
      "##rading": 3369,
      "##bine": 3370,
      "##grading": 3371,
      "##fa": 3372,
      "##erok": 3373,
      "ing": 3374,
      "respons": 3375,
      "advert": 3376,
      "##ernation": 3377,
      "##ared": 3378,
      "maint": 3379,
      "generator": 3380,
      "upgrading": 3381,
      "subnet": 3382,
      "##icas": 3383,
      "internation": 3384,
      "usa": 3385,
      "loss": 3386,
      "pointer": 3387,
      "attached": 3388,
      "handle": 3389,
      "redir": 3390,
      "tries": 3391,
      "combine": 3392,
      "uns": 3393,
      "cherok": 3394,
      "##ppen": 3395,
      "edda": 3396,
      "encod": 3397,
      "logo": 3398,
      "logged": 3399,
      "permit": 3400,
      "cmp": 3401,
      "cvs": 3402,
      "operations": 3403,
      "acca": 3404,
      "reasonable": 3405,
      "faed": 3406,
      "cause": 3407,
      "msn": 3408,
      "shared": 3409,
      "##ries": 3410,
      "statistics": 3411,
      "dafa": 3412,
      "supply": 3413,
      "replicas": 3414,
      "become": 3415,
      "utf": 3416,
      "##ization": 3417,
      "acceptor": 3418,
      "##ising": 3419,
      "zeros": 3420,
      "##ibility": 3421,
      "feba": 3422,
      "reflection": 3423,
      "skn": 3424,
      "your": 3425,
      "recovered": 3426,
      "bos": 3427,
      "entries": 3428,
      "installation": 3429,
      "publ": 3430,
      "gyun": 3431,
      "json": 3432,
      "dps": 3433,
      "dpm": 3434,
      "pki": 3435,
      "prompts": 3436,
      "happen": 3437,
      "tui": 3438,
      "cgi": 3439,
      "media": 3440,
      "week": 3441,
      "xiao": 3442,
      "responsibility": 3443,
      "advertising": 3444,
      "international": 3445,
      "redirect": 3446,
      "cherokee": 3447,
      "encoder": 3448,
      "becomes": 3449,
      "arr": 3450,
      "bz": 3451,
      "bid": 3452,
      "bra": 3453,
      "cy": 3454,
      "csp": 3455,
      "cro": 3456,
      "car": 3457,
      "dw": 3458,
      "ecce": 3459,
      "elect": 3460,
      "fr": 3461,
      "fill": 3462,
      "foc": 3463,
      "gra": 3464,
      "ime": 3465,
      "mib": 3466,
      "ned": 3467,
      "nel": 3468,
      "oie": 3469,
      "rv": 3470,
      "rer": 3471,
      "rss": 3472,
      "spt": 3473,
      "save": 3474,
      "tip": 3475,
      "wu": 3476,
      "wv": 3477,
      "wb": 3478,
      "wrap": 3479,
      "xvi": 3480,
      "yur": 3481,
      "yap": 3482,
      "##dic": 3483,
      "##ral": 3484,
      "##bound": 3485,
      "##iation": 3486,
      "##ish": 3487,
      "##ao": 3488,
      "##gy": 3489,
      "indic": 3490,
      "nar": 3491,
      "pai": 3492,
      "##ceful": 3493,
      "adde": 3494,
      "##enance": 3495,
      "std": 3496,
      "##les": 3497,
      "##verter": 3498,
      "deleted": 3499,
      "deed": 3500,
      "dig": 3501,
      "##any": 3502,
      "examp": 3503,
      "##itom": 3504,
      "##rease": 3505,
      "neo": 3506,
      "needed": 3507,
      "flood": 3508,
      "assume": 3509,
      "trip": 3510,
      "##gnize": 3511,
      "notifier": 3512,
      "union": 3513,
      "ims": 3514,
      "##olar": 3515,
      "converter": 3516,
      "##ategy": 3517,
      "quit": 3518,
      "quality": 3519,
      "mole": 3520,
      "company": 3521,
      "way": 3522,
      "copy": 3523,
      "ipv": 3524,
      "msi": 3525,
      "shall": 3526,
      "mtu": 3527,
      "flare": 3528,
      "strategy": 3529,
      "calculation": 3530,
      "value": 3531,
      "negotiation": 3532,
      "restore": 3533,
      "initialize": 3534,
      "finalize": 3535,
      "collect": 3536,
      "collecting": 3537,
      "increase": 3538,
      "miao": 3539,
      "mek": 3540,
      "routes": 3541,
      "smart": 3542,
      "serialize": 3543,
      "replications": 3544,
      "bdda": 3545,
      "cefa": 3546,
      "flags": 3547,
      "scholar": 3548,
      "geo": 3549,
      "remove": 3550,
      "removing": 3551,
      "recognize": 3552,
      "wins": 3553,
      "sumitom": 3554,
      "central": 3555,
      "wta": 3556,
      "maintenance": 3557,
      "publish": 3558,
      "array": 3559,
      "brain": 3560,
      "electric": 3561,
      "frp": 3562,
      "focus": 3563,
      "graceful": 3564,
      "tips": 3565,
      "yuri": 3566,
      "indicator": 3567,
      "examples": 3568,
      "flooding": 3569,
      "sumitomo": 3570,
      "publishing": 3571,
      "ant": 3572,
      "ahe": 3573,
      "aim": 3574,
      "bx": 3575,
      "bio": 3576,
      "bir": 3577,
      "cert": 3578,
      "cyn": 3579,
      "dh": 3580,
      "dst": 3581,
      "dail": 3582,
      "ether": 3583,
      "free": 3584,
      "gj": 3585,
      "gue": 3586,
      "hx": 3587,
      "hop": 3588,
      "haus": 3589,
      "iw": 3590,
      "il": 3591,
      "ii": 3592,
      "ize": 3593,
      "jk": 3594,
      "ji": 3595,
      "jack": 3596,
      "kam": 3597,
      "mat": 3598,
      "mix": 3599,
      "nh": 3600,
      "our": 3601,
      "pts": 3602,
      "ro": 3603,
      "rw": 3604,
      "ry": 3605,
      "sb": 3606,
      "ssh": 3607,
      "ted": 3608,
      "tst": 3609,
      "tab": 3610,
      "tty": 3611,
      "tap": 3612,
      "uh": 3613,
      "um": 3614,
      "vid": 3615,
      "wo": 3616,
      "wq": 3617,
      "xu": 3618,
      "xi": 3619,
      "zip": 3620,
      "##uid": 3621,
      "##ucce": 3622,
      "##tion": 3623,
      "##dd": 3624,
      "##ocat": 3625,
      "##ous": 3626,
      "##cc": 3627,
      "##sy": 3628,
      "##eg": 3629,
      "##earch": 3630,
      "##lare": 3631,
      "##ij": 3632,
      "##iru": 3633,
      "##ait": 3634,
      "##zone": 3635,
      "##ery": 3636,
      "##eristics": 3637,
      "rex": 3638,
      "##orec": 3639,
      "adj": 3640,
      "star": 3641,
      "stub": 3642,
      "##iviru": 3643,
      "six": 3644,
      "iso": 3645,
      "##roper": 3646,
      "deleg": 3647,
      "mac": 3648,
      "cup": 3649,
      "alm": 3650,
      "##icient": 3651,
      "##ssful": 3652,
      "##igame": 3653,
      "park": 3654,
      "partner": 3655,
      "needs": 3656,
      "append": 3657,
      "spp": 3658,
      "spann": 3659,
      "timezone": 3660,
      "flow": 3661,
      "sold": 3662,
      "##unk": 3663,
      "glen": 3664,
      "cold": 3665,
      "cosy": 3666,
      "expanding": 3667,
      "scorec": 3668,
      "dtd": 3669,
      "chem": 3670,
      "chunk": 3671,
      "##amic": 3672,
      "streams": 3673,
      "conti": 3674,
      "query": 3675,
      "sorter": 3676,
      "outbound": 3677,
      "research": 3678,
      "connections": 3679,
      "person": 3680,
      "deny": 3681,
      "runner": 3682,
      "raw": 3683,
      "vis": 3684,
      "broca": 3685,
      "community": 3686,
      "show": 3687,
      "bade": 3688,
      "baij": 3689,
      "liu": 3690,
      "kbps": 3691,
      "cfm": 3692,
      "located": 3693,
      "ica": 3694,
      "ordered": 3695,
      "extend": 3696,
      "##itter": 3697,
      "fluid": 3698,
      "greg": 3699,
      "ports": 3700,
      "execute": 3701,
      "therefore": 3702,
      "guarantee": 3703,
      "##ufficient": 3704,
      "##smatch": 3705,
      "epb": 3706,
      "epa": 3707,
      "minigame": 3708,
      "insufficient": 3709,
      "inserting": 3710,
      "cleaning": 3711,
      "applied": 3712,
      "applications": 3713,
      "declare": 3714,
      "dna": 3715,
      "tracking": 3716,
      "sns": 3717,
      "##acteristics": 3718,
      "two": 3719,
      "twitter": 3720,
      "segmentation": 3721,
      "restric": 3722,
      "initialized": 3723,
      "periodic": 3724,
      "reporter": 3725,
      "incl": 3726,
      "inconsistency": 3727,
      "aborting": 3728,
      "mismatch": 3729,
      "shou": 3730,
      "take": 3731,
      "medal": 3732,
      "niu": 3733,
      "bbbb": 3734,
      "drp": 3735,
      "brand": 3736,
      "sma": 3737,
      "smith": 3738,
      "serialization": 3739,
      "avg": 3740,
      "gma": 3741,
      "xef": 3742,
      "lsw": 3743,
      "board": 3744,
      "characteristics": 3745,
      "neighbors": 3746,
      "ldl": 3747,
      "neighbours": 3748,
      "cffd": 3749,
      "position": 3750,
      "synchronous": 3751,
      "baba": 3752,
      "exchanged": 3753,
      "await": 3754,
      "impact": 3755,
      "improper": 3756,
      "invocat": 3757,
      "wrapped": 3758,
      "dynamic": 3759,
      "authorization": 3760,
      "dms": 3761,
      "hclo": 3762,
      "casale": 3763,
      "hao": 3764,
      "fwd": 3765,
      "telnet": 3766,
      "unsigned": 3767,
      "unsucce": 3768,
      "antiviru": 3769,
      "ahead": 3770,
      "birth": 3771,
      "daily": 3772,
      "iwf": 3773,
      "jackson": 3774,
      "kama": 3775,
      "mati": 3776,
      "taboo": 3777,
      "delegating": 3778,
      "spanning": 3779,
      "scorecard": 3780,
      "personality": 3781,
      "brocade": 3782,
      "baiji": 3783,
      "restriction": 3784,
      "invocation": 3785,
      "unsuccessful": 3786,
      "antivirus": 3787,
      "ae": 3788,
      "aid": 3789,
      "ber": 3790,
      "bond": 3791,
      "bod": 3792,
      "bow": 3793,
      "cq": 3794,
      "dx": 3795,
      "ding": 3796,
      "dal": 3797,
      "ew": 3798,
      "ek": 3799,
      "ej": 3800,
      "fg": 3801,
      "fing": 3802,
      "ful": 3803,
      "fif": 3804,
      "fath": 3805,
      "ga": 3806,
      "gz": 3807,
      "gin": 3808,
      "gone": 3809,
      "gcc": 3810,
      "hr": 3811,
      "hf": 3812,
      "him": 3813,
      "hse": 3814,
      "iv": 3815,
      "ig": 3816,
      "iut": 3817,
      "jy": 3818,
      "jb": 3819,
      "jac": 3820,
      "kk": 3821,
      "ki": 3822,
      "ker": 3823,
      "kle": 3824,
      "keep": 3825,
      "lse": 3826,
      "mst": 3827,
      "nec": 3828,
      "ot": 3829,
      "ol": 3830,
      "oi": 3831,
      "om": 3832,
      "oj": 3833,
      "ple": 3834,
      "patch": 3835,
      "qp": 3836,
      "qg": 3837,
      "rg": 3838,
      "rst": 3839,
      "rating": 3840,
      "rub": 3841,
      "rul": 3842,
      "rang": 3843,
      "role": 3844,
      "ti": 3845,
      "tg": 3846,
      "tion": 3847,
      "tre": 3848,
      "tter": 3849,
      "uk": 3850,
      "ug": 3851,
      "usp": 3852,
      "vcu": 3853,
      "wen": 3854,
      "wro": 3855,
      "ware": 3856,
      "yu": 3857,
      "yr": 3858,
      "zd": 3859,
      "##has": 3860,
      "##hai": 3861,
      "##ude": 3862,
      "##te": 3863,
      "##wi": 3864,
      "##way": 3865,
      "##wrap": 3866,
      "##cp": 3867,
      "##sis": 3868,
      "##ef": 3869,
      "##efe": 3870,
      "##phas": 3871,
      "##rer": 3872,
      "##ration": 3873,
      "##iate": 3874,
      "##ipping": 3875,
      "##jected": 3876,
      "##just": 3877,
      "##erver": 3878,
      "##erprint": 3879,
      "inject": 3880,
      "ingress": 3881,
      "inbound": 3882,
      "##lorer": 3883,
      "##eding": 3884,
      "reach": 3885,
      "regist": 3886,
      "relay": 3887,
      "rejected": 3888,
      "##emption": 3889,
      "##stall": 3890,
      "noc": 3891,
      "##spot": 3892,
      "adz": 3893,
      "tow": 3894,
      "##enger": 3895,
      "sti": 3896,
      "stun": 3897,
      "station": 3898,
      "updating": 3899,
      "##ancy": 3900,
      "cut": 3901,
      "alive": 3902,
      "##icon": 3903,
      "##oto": 3904,
      "parsing": 3905,
      "ncd": 3906,
      "nei": 3907,
      "need": 3908,
      "##uming": 3909,
      "project": 3910,
      "ation": 3911,
      "apply": 3912,
      "sport": 3913,
      "whole": 3914,
      "lose": 3915,
      "floor": 3916,
      "linn": 3917,
      "assuming": 3918,
      "attempts": 3919,
      "trp": 3920,
      "come": 3921,
      "detached": 3922,
      "explorer": 3923,
      "##imary": 3924,
      "scold": 3925,
      "ang": 3926,
      "ance": 3927,
      "wasn": 3928,
      "addresses": 3929,
      "succeeding": 3930,
      "unwrap": 3931,
      "efefe": 3932,
      "##arding": 3933,
      "chen": 3934,
      "cheng": 3935,
      "messenger": 3936,
      "traverse": 3937,
      "convert": 3938,
      "direction": 3939,
      "directly": 3940,
      "locate": 3941,
      "##uded": 3942,
      "##ained": 3943,
      "preemption": 3944,
      "gout": 3945,
      "moving": 3946,
      "outed": 3947,
      "bead": 3948,
      "##usive": 3949,
      "mang": 3950,
      "networks": 3951,
      "rms": 3952,
      "lea": 3953,
      "requested": 3954,
      "waz": 3955,
      "came": 3956,
      "readjust": 3957,
      "foundry": 3958,
      "##anghai": 3959,
      "##lying": 3960,
      "threads": 3961,
      "plum": 3962,
      "retried": 3963,
      "photo": 3964,
      "lac": 3965,
      "print": 3966,
      "primary": 3967,
      "self": 3968,
      "shy": 3969,
      "shanghai": 3970,
      "dispatching": 3971,
      "sak": 3972,
      "ical": 3973,
      "xfd": 3974,
      "xfe": 3975,
      "abl": 3976,
      "abed": 3977,
      "able": 3978,
      "replace": 3979,
      "string": 3980,
      "##ording": 3981,
      "afl": 3982,
      "became": 3983,
      "defaulted": 3984,
      "guaran": 3985,
      "throw": 3986,
      "minor": 3987,
      "redundancy": 3988,
      "learned": 3989,
      "brief": 3990,
      "emphas": 3991,
      "environmental": 3992,
      "nky": 3993,
      "agin": 3994,
      "diagnose": 3995,
      "diagnosis": 3996,
      "reporting": 3997,
      "uninstall": 3998,
      "ddddd": 3999,
      "advance": 4000,
      "hashing": 4001,
      "ull": 4002,
      "according": 4003,
      "aaaa": 4004,
      "pfs": 4005,
      "skipping": 4006,
      "vms": 4007,
      "niet": 4008,
      "facility": 4009,
      "elx": 4010,
      "heap": 4011,
      "abaca": 4012,
      "cancelled": 4013,
      "undo": 4014,
      "underlying": 4015,
      "avn": 4016,
      "hotspot": 4017,
      "parameter": 4018,
      "arc": 4019,
      "preempting": 4020,
      "observer": 4021,
      "lsy": 4022,
      "boo": 4023,
      "ghd": 4024,
      "ghb": 4025,
      "zhang": 4026,
      "quietly": 4027,
      "instantiate": 4028,
      "cccccc": 4029,
      "discarding": 4030,
      "babe": 4031,
      "proposal": 4032,
      "accounting": 4033,
      "gateway": 4034,
      "synchronization": 4035,
      "methods": 4036,
      "delayed": 4037,
      "exclusive": 4038,
      "lms": 4039,
      "rko": 4040,
      "rfp": 4041,
      "ihm": 4042,
      "gtv": 4043,
      "rdt": 4044,
      "center": 4045,
      "maintained": 4046,
      "public": 4047,
      "rvd": 4048,
      "dhcp": 4049,
      "ryu": 4050,
      "would": 4051,
      "chunks": 4052,
      "include": 4053,
      "included": 4054,
      "mismatched": 4055,
      "aek": 4056,
      "body": 4057,
      "bowen": 4058,
      "dingo": 4059,
      "fingerprint": 4060,
      "fifa": 4061,
      "father": 4062,
      "gina": 4063,
      "kkk": 4064,
      "kiwi": 4065,
      "please": 4066,
      "rubicon": 4067,
      "range": 4068,
      "wrote": 4069,
      "injection": 4070,
      "registration": 4071,
      "efefef": 4072,
      "emphasis": 4073,
      "dddddd": 4074
    }
  }
}